{
  "version": "1.0",
  "truncation": null,
  "padding": null,
  "added_tokens": [
    {
      "id": 0,
      "content": "[UNK]",
      "single_word": false,
      "lstrip": false,
      "rstrip": false,
      "normalized": false,
      "special": true
    },
    {
      "id": 1,
      "content": "[PAD]",
      "single_word": false,
      "lstrip": false,
      "rstrip": false,
      "normalized": false,
      "special": true
    }
  ],
  "normalizer": {
    "type": "Sequence",
    "normalizers": [
      {
        "type": "NFKC"
      },
      {
        "type": "BertNormalizer",
        "clean_text": true,
        "handle_chinese_chars": true,
        "strip_accents": null,
        "lowercase": true
      }
    ]
  },
  "pre_tokenizer": {
    "type": "BertPreTokenizer"
  },
  "post_processor": null,
  "decoder": {
    "type": "WordPiece",
    "prefix": "##",
    "cleanup": true
  },
  "model": {
    "type": "WordPiece",
    "unk_token": "[UNK]",
    "continuing_subword_prefix": "##",
    "max_input_chars_per_word": 100,
    "vocab": {
      "[UNK]": 0,
      "[PAD]": 1,
      "!": 2,
      "#": 3,
      "$": 4,
      "%": 5,
      "&": 6,
      "'": 7,
      "(": 8,
      ")": 9,
      "*": 10,
      "+": 11,
      ",": 12,
      "-": 13,
      ".": 14,
      "/": 15,
      "0": 16,
      "1": 17,
      "2": 18,
      "3": 19,
      "4": 20,
      "5": 21,
      "6": 22,
      "7": 23,
      "8": 24,
      "9": 25,
      ":": 26,
      ";": 27,
      "<": 28,
      "=": 29,
      ">": 30,
      "?": 31,
      "@": 32,
      "[": 33,
      "]": 34,
      "`": 35,
      "a": 36,
      "b": 37,
      "c": 38,
      "d": 39,
      "e": 40,
      "f": 41,
      "g": 42,
      "h": 43,
      "i": 44,
      "j": 45,
      "k": 46,
      "l": 47,
      "m": 48,
      "n": 49,
      "o": 50,
      "p": 51,
      "q": 52,
      "r": 53,
      "s": 54,
      "t": 55,
      "u": 56,
      "v": 57,
      "w": 58,
      "x": 59,
      "y": 60,
      "z": 61,
      "|": 62,
      "~": 63,
      "£": 64,
      "«": 65,
      "°": 66,
      "–": 67,
      "—": 68,
      "‘": 69,
      "’": 70,
      "“": 71,
      "”": 72,
      "•": 73,
      "‰": 74,
      "€": 75,
      "##u": 76,
      "##t": 77,
      "##a": 78,
      "##b": 79,
      "##i": 80,
      "##r": 81,
      "##k": 82,
      "##o": 83,
      "##y": 84,
      "##s": 85,
      "##x": 86,
      "##p": 87,
      "##l": 88,
      "##n": 89,
      "##e": 90,
      "##g": 91,
      "##m": 92,
      "##c": 93,
      "##d": 94,
      "##5": 95,
      "##0": 96,
      "##4": 97,
      "##w": 98,
      "##h": 99,
      "##f": 100,
      "##q": 101,
      "##z": 102,
      "##6": 103,
      "##2": 104,
      "##7": 105,
      "##v": 106,
      "##8": 107,
      "##3": 108,
      "##1": 109,
      "##9": 110,
      "##j": 111,
      "##°": 112,
      "th": 113,
      "##er": 114,
      "the": 115,
      "##ed": 116,
      "##es": 117,
      "##in": 118,
      "##on": 119,
      "##en": 120,
      "in": 121,
      "##at": 122,
      "##or": 123,
      "##nd": 124,
      "##it": 125,
      "of": 126,
      "##al": 127,
      "##ar": 128,
      "and": 129,
      "##as": 130,
      "##an": 131,
      "##ing": 132,
      "##re": 133,
      "to": 134,
      "##ion": 135,
      "##ic": 136,
      "##is": 137,
      "##ro": 138,
      "##il": 139,
      "##ent": 140,
      "re": 141,
      "##ou": 142,
      "##ec": 143,
      "##ve": 144,
      "##ur": 145,
      "##th": 146,
      "##ly": 147,
      "##le": 148,
      "##om": 149,
      "##ac": 150,
      "are": 151,
      "##ation": 152,
      "##ted": 153,
      "##oo": 154,
      "##tr": 155,
      "be": 156,
      "##am": 157,
      "##ver": 158,
      "##id": 159,
      "con": 160,
      "as": 161,
      "##st": 162,
      "##ol": 163,
      "for": 164,
      "ha": 165,
      "is": 166,
      "##ce": 167,
      "##ity": 168,
      "on": 169,
      "##ood": 170,
      "##ig": 171,
      "##ts": 172,
      "##ul": 173,
      "##ies": 174,
      "##op": 175,
      "##ere": 176,
      "##ter": 177,
      "##por": 178,
      "##ut": 179,
      "##se": 180,
      "##ir": 181,
      "##ge": 182,
      "ac": 183,
      "##ment": 184,
      "##el": 185,
      "su": 186,
      "20": 187,
      "wh": 188,
      "ch": 189,
      "al": 190,
      "##ain": 191,
      "pro": 192,
      "ne": 193,
      "have": 194,
      "se": 195,
      "st": 196,
      "dis": 197,
      "##um": 198,
      "##iv": 199,
      "##ad": 200,
      "##im": 201,
      "##ith": 202,
      "de": 203,
      "with": 204,
      "##ch": 205,
      "201": 206,
      "##ff": 207,
      "##ill": 208,
      "##ab": 209,
      "##ess": 210,
      "food": 211,
      "##ow": 212,
      "##ay": 213,
      "##ate": 214,
      "inc": 215,
      "##ers": 216,
      "##rom": 217,
      "pe": 218,
      "##est": 219,
      "from": 220,
      "by": 221,
      "##un": 222,
      "he": 223,
      "##00": 224,
      "at": 225,
      "repor": 226,
      "that": 227,
      "peop": 228,
      "people": 229,
      "##oc": 230,
      "##ive": 231,
      "com": 232,
      "were": 233,
      "res": 234,
      "##tion": 235,
      "##igh": 236,
      "##pl": 237,
      "cas": 238,
      "an": 239,
      "##ected": 240,
      "##em": 241,
      "mo": 242,
      "##ater": 243,
      "##uc": 244,
      "##ak": 245,
      "sh": 246,
      "##ast": 247,
      "per": 248,
      "ex": 249,
      "##ild": 250,
      "le": 251,
      "##ition": 252,
      "##ated": 253,
      "has": 254,
      "acc": 255,
      "##ian": 256,
      "##ities": 257,
      "water": 258,
      "been": 259,
      "no": 260,
      "un": 261,
      "##ber": 262,
      "##ps": 263,
      "##ding": 264,
      "reported": 265,
      "##rou": 266,
      "##ren": 267,
      "child": 268,
      "##ue": 269,
      "##os": 270,
      "##oun": 271,
      "pr": 272,
      "##ther": 273,
      "##ag": 274,
      "or": 275,
      "##ary": 276,
      "cases": 277,
      "000": 278,
      "aff": 279,
      "##ial": 280,
      "##age": 281,
      "children": 282,
      "sa": 283,
      "##alth": 284,
      "##gh": 285,
      "health": 286,
      "##ore": 287,
      "##and": 288,
      "##ist": 289,
      "their": 290,
      "##art": 291,
      "##lu": 292,
      "##our": 293,
      "out": 294,
      "need": 295,
      "cent": 296,
      "cont": 297,
      "##ome": 298,
      "was": 299,
      "##if": 300,
      "im": 301,
      "##ia": 302,
      "coun": 303,
      "2017": 304,
      "hou": 305,
      "areas": 306,
      "##pp": 307,
      "ass": 308,
      "##ack": 309,
      "##us": 310,
      "##ds": 311,
      "##over": 312,
      "reg": 313,
      "##ase": 314,
      "ab": 315,
      "##ting": 316,
      "comm": 317,
      "##ear": 318,
      "##ls": 319,
      "##ecur": 320,
      "##ecurity": 321,
      "we": 322,
      "affected": 323,
      "##ib": 324,
      "ar": 325,
      "##ure": 326,
      "mar": 327,
      "##ical": 328,
      "##ke": 329,
      "##uman": 330,
      "##ong": 331,
      "ad": 332,
      "##ices": 333,
      "##able": 334,
      "tr": 335,
      "access": 336,
      "di": 337,
      "##duc": 338,
      "##ations": 339,
      "##qu": 340,
      "human": 341,
      "##plac": 342,
      "ref": 343,
      "inclu": 344,
      "ag": 345,
      "##ince": 346,
      "displac": 347,
      "more": 348,
      "fac": 349,
      "prov": 350,
      "this": 351,
      "##enc": 352,
      "##cent": 353,
      "over": 354,
      "##ult": 355,
      "##all": 356,
      "incre": 357,
      "it": 358,
      "##tern": 359,
      "##ap": 360,
      "than": 361,
      "##ant": 362,
      "##ance": 363,
      "not": 364,
      "cam": 365,
      "##try": 366,
      "id": 367,
      "year": 368,
      "##tric": 369,
      "high": 370,
      "part": 371,
      "##iz": 372,
      "##hol": 373,
      "sch": 374,
      "##uge": 375,
      "most": 376,
      "they": 377,
      "##ents": 378,
      "wor": 379,
      "##so": 380,
      "some": 381,
      "##ld": 382,
      "##out": 383,
      "po": 384,
      "##ich": 385,
      "refuge": 386,
      "schoo": 387,
      "due": 388,
      "ser": 389,
      "man": 390,
      "##ence": 391,
      "mon": 392,
      "##ect": 393,
      "fl": 394,
      "nor": 395,
      "##ous": 396,
      "mal": 397,
      "ins": 398,
      "also": 399,
      "house": 400,
      "which": 401,
      "##per": 402,
      "##ath": 403,
      "cr": 404,
      "ma": 405,
      "##ces": 406,
      "pre": 407,
      "region": 408,
      "cl": 409,
      "conf": 410,
      "me": 411,
      "##utr": 412,
      "contin": 413,
      "rem": 414,
      "##ice": 415,
      "dec": 416,
      "said": 417,
      "including": 418,
      "##overn": 419,
      "##ile": 420,
      "there": 421,
      "govern": 422,
      "##rough": 423,
      "househol": 424,
      "sou": 425,
      "who": 426,
      "sever": 427,
      "sit": 428,
      "##itar": 429,
      "##utrition": 430,
      "##ek": 431,
      "inf": 432,
      "loc": 433,
      "##itarian": 434,
      "humanitarian": 435,
      "fe": 436,
      "##ine": 437,
      "imp": 438,
      "##lic": 439,
      "en": 440,
      "rain": 441,
      "ris": 442,
      "##ord": 443,
      "commun": 444,
      "##low": 445,
      "##dition": 446,
      "fam": 447,
      "am": 448,
      "##port": 449,
      "sup": 450,
      "dam": 451,
      "displaced": 452,
      "since": 453,
      "liv": 454,
      "##pr": 455,
      "num": 456,
      "##ased": 457,
      "##sp": 458,
      "##med": 459,
      "af": 460,
      "##ra": 461,
      "country": 462,
      "remain": 463,
      "##uary": 464,
      "str": 465,
      "##illion": 466,
      "##we": 467,
      "med": 468,
      "pl": 469,
      "em": 470,
      "will": 471,
      "assist": 472,
      "serv": 473,
      "##li": 474,
      "##ost": 475,
      "##et": 476,
      "##ss": 477,
      "famil": 478,
      "##ail": 479,
      "##od": 480,
      "sp": 481,
      "security": 482,
      "pop": 483,
      "##arly": 484,
      "##ell": 485,
      "popul": 486,
      "##ach": 487,
      "##ency": 488,
      "million": 489,
      "##uring": 490,
      "##ason": 491,
      "cro": 492,
      "assistance": 493,
      "ph": 494,
      "##ual": 495,
      "##ip": 496,
      "comp": 497,
      "##urr": 498,
      "##ational": 499,
      "new": 500,
      "##ates": 501,
      "au": 502,
      "households": 503,
      "death": 504,
      "##av": 505,
      "##tal": 506,
      "##ans": 507,
      "##wo": 508,
      "percent": 509,
      "##tur": 510,
      "number": 511,
      "##ied": 512,
      "dr": 513,
      "during": 514,
      "refugees": 515,
      "week": 516,
      "##erg": 517,
      "cons": 518,
      "##ments": 519,
      "2016": 520,
      "##to": 521,
      "these": 522,
      "##ute": 523,
      "##ide": 524,
      "##end": 525,
      "all": 526,
      "ev": 527,
      "und": 528,
      "bet": 529,
      "resp": 530,
      "exp": 531,
      "risk": 532,
      "sy": 533,
      "thre": 534,
      "month": 535,
      "may": 536,
      "##uation": 537,
      "##are": 538,
      "att": 539,
      "##reak": 540,
      "har": 541,
      "shel": 542,
      "government": 543,
      "two": 544,
      "needs": 545,
      "##iol": 546,
      "season": 547,
      "##ock": 548,
      "est": 549,
      "shelter": 550,
      "##ection": 551,
      "many": 552,
      "##era": 553,
      "south": 554,
      "services": 555,
      "families": 556,
      "maln": 557,
      "wom": 558,
      "other": 559,
      "lack": 560,
      "##ub": 561,
      "##ang": 562,
      "##ish": 563,
      "state": 564,
      "off": 565,
      "outb": 566,
      "distric": 567,
      "outbreak": 568,
      "ind": 569,
      "one": 570,
      "##ign": 571,
      "under": 572,
      "had": 573,
      "total": 574,
      "while": 575,
      "emerg": 576,
      "##ording": 577,
      "##ween": 578,
      "between": 579,
      "women": 580,
      "leve": 581,
      "according": 582,
      "local": 583,
      "##ember": 584,
      "severe": 585,
      "population": 586,
      "min": 587,
      "##ors": 588,
      "facil": 589,
      "li": 590,
      "##ning": 591,
      "##pt": 592,
      "acute": 593,
      "flood": 594,
      "##ens": 595,
      "up": 596,
      "##ort": 597,
      "sur": 598,
      "##read": 599,
      "rec": 600,
      "chol": 601,
      "cholera": 602,
      "city": 603,
      "but": 604,
      "area": 605,
      "viol": 606,
      "##ages": 607,
      "deaths": 608,
      "##pit": 609,
      "##hood": 610,
      "##ited": 611,
      "situation": 612,
      "##king": 613,
      "emergency": 614,
      "act": 615,
      "far": 616,
      "##ose": 617,
      "grou": 618,
      "##day": 619,
      "estim": 620,
      "live": 621,
      "##icult": 622,
      "prot": 623,
      "##ific": 624,
      "cris": 625,
      "poor": 626,
      "10": 627,
      "main": 628,
      "##ass": 629,
      "oc": 630,
      "el": 631,
      "##ight": 632,
      "idps": 633,
      "##ust": 634,
      "rel": 635,
      "retur": 636,
      "insecurity": 637,
      "conflic": 638,
      "##orm": 639,
      "schools": 640,
      "##urrent": 641,
      "malnutrition": 642,
      "##ious": 643,
      "##thern": 644,
      "prices": 645,
      "15": 646,
      "aver": 647,
      "centr": 648,
      "crisis": 649,
      "produc": 650,
      "continu": 651,
      "app": 652,
      "north": 653,
      "ip": 654,
      "mil": 655,
      "##aged": 656,
      "them": 657,
      "##au": 658,
      "through": 659,
      "phase": 660,
      "respon": 661,
      "prev": 662,
      "ipc": 663,
      "##ah": 664,
      "conflict": 665,
      "pers": 666,
      "average": 667,
      "current": 668,
      "##iver": 669,
      "##ses": 670,
      "march": 671,
      "susp": 672,
      "arr": 673,
      "##wn": 674,
      "##ural": 675,
      "##ior": 676,
      "only": 677,
      "school": 678,
      "bo": 679,
      "like": 680,
      "camp": 681,
      "##arge": 682,
      "jan": 683,
      "2018": 684,
      "about": 685,
      "past": 686,
      "##ative": 687,
      "##ould": 688,
      "camps": 689,
      "last": 690,
      "where": 691,
      "return": 692,
      "red": 693,
      "among": 694,
      "facilities": 695,
      "##ya": 696,
      "attack": 697,
      "##ty": 698,
      "##ared": 699,
      "##go": 700,
      "three": 701,
      "ro": 702,
      "##one": 703,
      "##ating": 704,
      "##als": 705,
      "civ": 706,
      "##abil": 707,
      "civil": 708,
      "dep": 709,
      "dise": 710,
      "condition": 711,
      "##omes": 712,
      "##te": 713,
      "##az": 714,
      "##cer": 715,
      "co": 716,
      "vill": 717,
      "##truc": 718,
      "being": 719,
      "##und": 720,
      "medical": 721,
      "par": 722,
      "av": 723,
      "lim": 724,
      "day": 725,
      "##iss": 726,
      "january": 727,
      "##ially": 728,
      "##act": 729,
      "##tle": 730,
      "##ner": 731,
      "##thor": 732,
      "increased": 733,
      "author": 734,
      "after": 735,
      "us": 736,
      "estimated": 737,
      "##itation": 738,
      "##br": 739,
      "such": 740,
      "##ians": 741,
      "continue": 742,
      "liveli": 743,
      "hos": 744,
      "##ake": 745,
      "livelihood": 746,
      "educ": 747,
      "ur": 748,
      "bas": 749,
      "des": 750,
      "sam": 751,
      "san": 752,
      "violence": 753,
      "##ands": 754,
      "support": 755,
      "##ally": 756,
      "marke": 757,
      "well": 758,
      "col": 759,
      "sc": 760,
      "##aw": 761,
      "##ons": 762,
      "partic": 763,
      "##rought": 764,
      "##yed": 765,
      "maj": 766,
      "addition": 767,
      "concer": 768,
      "expected": 769,
      "apr": 770,
      "how": 771,
      "ca": 772,
      "least": 773,
      "conditions": 774,
      "intern": 775,
      "damaged": 776,
      "april": 777,
      "major": 778,
      "fol": 779,
      "sign": 780,
      "##ced": 781,
      "##trib": 782,
      "inter": 783,
      "12": 784,
      "##ross": 785,
      "across": 786,
      "hospit": 787,
      "##arr": 788,
      "##idents": 789,
      "five": 790,
      "follow": 791,
      "fur": 792,
      "assess": 793,
      "##ire": 794,
      "vul": 795,
      "communities": 796,
      "##up": 797,
      "rece": 798,
      "set": 799,
      "protection": 800,
      "##ution": 801,
      "years": 802,
      "vulner": 803,
      "low": 804,
      "op": 805,
      "##ough": 806,
      "suspected": 807,
      "kill": 808,
      "##ene": 809,
      "##astern": 810,
      "short": 811,
      "##round": 812,
      "bec": 813,
      "sud": 814,
      "increase": 815,
      "nutrition": 816,
      "saf": 817,
      "concern": 818,
      "##ound": 819,
      "11": 820,
      "oper": 821,
      "##ants": 822,
      "further": 823,
      "##ines": 824,
      "farm": 825,
      "17": 826,
      "##ade": 827,
      "tim": 828,
      "dest": 829,
      "##ud": 830,
      "milit": 831,
      "national": 832,
      "education": 833,
      "drought": 834,
      "work": 835,
      "mos": 836,
      "trans": 837,
      "west": 838,
      "##gan": 839,
      "months": 840,
      "requ": 841,
      "living": 842,
      "pol": 843,
      "febr": 844,
      "appro": 845,
      "##ention": 846,
      "community": 847,
      "caus": 848,
      "##ved": 849,
      "february": 850,
      "so": 851,
      "particul": 852,
      "##ately": 853,
      "agr": 854,
      "##gr": 855,
      "confir": 856,
      "authorities": 857,
      "tre": 858,
      "##rol": 859,
      "##une": 860,
      "diff": 861,
      "harv": 862,
      "agricult": 863,
      "##eng": 864,
      "##ever": 865,
      "##ources": 866,
      "##ified": 867,
      "te": 868,
      "however": 869,
      "avail": 870,
      "levels": 871,
      "18": 872,
      "still": 873,
      "##ement": 874,
      "##der": 875,
      "production": 876,
      "do": 877,
      "case": 878,
      "care": 879,
      "##cr": 880,
      "limited": 881,
      "its": 882,
      "##ys": 883,
      "recent": 884,
      "province": 885,
      "likely": 886,
      "destro": 887,
      "sudan": 888,
      "impro": 889,
      "##ublic": 890,
      "cap": 891,
      "##ie": 892,
      "##own": 893,
      "arriv": 894,
      "##ificant": 895,
      "##ases": 896,
      "livest": 897,
      "activ": 898,
      "significant": 899,
      "livestock": 900,
      "##ati": 901,
      "houses": 902,
      "rains": 903,
      "30": 904,
      "june": 905,
      "##les": 906,
      "16": 907,
      "those": 908,
      "into": 909,
      "19": 910,
      "##ize": 911,
      "14": 912,
      "syr": 913,
      "central": 914,
      "sub": 915,
      "suff": 916,
      "basic": 917,
      "##asing": 918,
      "host": 919,
      "town": 920,
      "bu": 921,
      "##tions": 922,
      "##ause": 923,
      "supp": 924,
      "aw": 925,
      "resul": 926,
      "now": 927,
      "25": 928,
      "confirmed": 929,
      "##ability": 930,
      "december": 931,
      "bord": 932,
      "can": 933,
      "provid": 934,
      "fir": 935,
      "##ator": 936,
      "offic": 937,
      "district": 938,
      "destroyed": 939,
      "peri": 940,
      "##ening": 941,
      "##ems": 942,
      "end": 943,
      "districts": 944,
      "del": 945,
      "##ms": 946,
      "sanitation": 947,
      "reach": 948,
      "13": 949,
      "##acc": 950,
      "##ners": 951,
      "report": 952,
      "ver": 953,
      "##ights": 954,
      "meas": 955,
      "land": 956,
      "##ving": 957,
      "suppl": 958,
      "##uel": 959,
      "eastern": 960,
      "compared": 961,
      "dem": 962,
      "minis": 963,
      "inj": 964,
      "forces": 965,
      "heav": 966,
      "response": 967,
      "decl": 968,
      "east": 969,
      "det": 970,
      "regions": 971,
      "som": 972,
      "vulnerable": 973,
      "##ard": 974,
      "ext": 975,
      "##ained": 976,
      "several": 977,
      "displacement": 978,
      "partners": 979,
      "refugee": 980,
      "##ible": 981,
      "currently": 982,
      "fr": 983,
      "pos": 984,
      "##ix": 985,
      "##ination": 986,
      "period": 987,
      "coll": 988,
      "around": 989,
      "mosul": 990,
      "somal": 991,
      "##fall": 992,
      "result": 993,
      "particularly": 994,
      "##itical": 995,
      "##igr": 996,
      "plan": 997,
      "##tober": 998,
      "ter": 999,
      "again": 1000,
      "move": 1001,
      "aug": 1002,
      "october": 1003,
      "tra": 1004,
      "supplies": 1005,
      "##ace": 1006,
      "##spec": 1007,
      "civilians": 1008,
      "homes": 1009,
      "##ik": 1010,
      "crops": 1011,
      "injur": 1012,
      "##orn": 1013,
      "four": 1014,
      "##ot": 1015,
      "reduc": 1016,
      "22": 1017,
      "##ties": 1018,
      "urg": 1019,
      "rights": 1020,
      "##ale": 1021,
      "below": 1022,
      "deter": 1023,
      "parts": 1024,
      "br": 1025,
      "aid": 1026,
      "qu": 1027,
      "##ash": 1028,
      "ra": 1029,
      "##xim": 1030,
      "##ener": 1031,
      "armed": 1032,
      "supply": 1033,
      "receiv": 1034,
      "bur": 1035,
      "hel": 1036,
      "##og": 1037,
      "rep": 1038,
      "reports": 1039,
      "syst": 1040,
      "border": 1041,
      "##ings": 1042,
      "residents": 1043,
      "killed": 1044,
      "##led": 1045,
      "groups": 1046,
      "military": 1047,
      "august": 1048,
      "rate": 1049,
      "near": 1050,
      "maize": 1051,
      "indic": 1052,
      "eff": 1053,
      "northern": 1054,
      "because": 1055,
      "##ides": 1056,
      "pati": 1057,
      "##ential": 1058,
      "rainfall": 1059,
      "##gin": 1060,
      "ongo": 1061,
      "##ters": 1062,
      "southern": 1063,
      "ongoing": 1064,
      "sept": 1065,
      "migr": 1066,
      "river": 1067,
      "time": 1068,
      "ob": 1069,
      "remains": 1070,
      "hospital": 1071,
      "following": 1072,
      "ban": 1073,
      "##ob": 1074,
      "dire": 1075,
      "50": 1076,
      "gener": 1077,
      "##ures": 1078,
      "safe": 1079,
      "non": 1080,
      "##bers": 1081,
      "##vel": 1082,
      "alread": 1083,
      "without": 1084,
      "##ission": 1085,
      "heavy": 1086,
      "already": 1087,
      "bl": 1088,
      "pres": 1089,
      "level": 1090,
      "war": 1091,
      "##ug": 1092,
      "governor": 1093,
      "say": 1094,
      "int": 1095,
      "##oral": 1096,
      "wash": 1097,
      "urgent": 1098,
      "##osed": 1099,
      "september": 1100,
      "##ey": 1101,
      "reportedly": 1102,
      "organ": 1103,
      "##ished": 1104,
      "espec": 1105,
      "##its": 1106,
      "##row": 1107,
      "first": 1108,
      "especially": 1109,
      "##ded": 1110,
      "##estern": 1111,
      "deterior": 1112,
      "based": 1113,
      "gir": 1114,
      "23": 1115,
      "ju": 1116,
      "##io": 1117,
      "fin": 1118,
      "sm": 1119,
      "##ecure": 1120,
      "##iger": 1121,
      "##ump": 1122,
      "settle": 1123,
      "##plo": 1124,
      "provin": 1125,
      "##uts": 1126,
      "##con": 1127,
      "distrib": 1128,
      "occ": 1129,
      "majority": 1130,
      "against": 1131,
      "24": 1132,
      "##esh": 1133,
      "##ond": 1134,
      "record": 1135,
      "disease": 1136,
      "exper": 1137,
      "activities": 1138,
      "##ban": 1139,
      "##me": 1140,
      "when": 1141,
      "increasing": 1142,
      "control": 1143,
      "suffer": 1144,
      "niger": 1145,
      "six": 1146,
      "inform": 1147,
      "related": 1148,
      "road": 1149,
      "##ying": 1150,
      "##ct": 1151,
      "lead": 1152,
      "damage": 1153,
      "harvest": 1154,
      "july": 1155,
      "patients": 1156,
      "could": 1157,
      "large": 1158,
      "livelihoods": 1159,
      "treat": 1160,
      "forced": 1161,
      "agricultural": 1162,
      "hal": 1163,
      "lab": 1164,
      "sect": 1165,
      "ministry": 1166,
      "villages": 1167,
      "##inking": 1168,
      "##ization": 1169,
      "even": 1170,
      "fuel": 1171,
      "idp": 1172,
      "shelters": 1173,
      "international": 1174,
      "##rop": 1175,
      "##ective": 1176,
      "approxim": 1177,
      "##fore": 1178,
      "##ized": 1179,
      "pal": 1180,
      "##ai": 1181,
      "official": 1182,
      "long": 1183,
      "assessment": 1184,
      "40": 1185,
      "##rup": 1186,
      "isra": 1187,
      "items": 1188,
      "attacks": 1189,
      "gre": 1190,
      "tur": 1191,
      "##ras": 1192,
      "##ction": 1193,
      "sites": 1194,
      "israel": 1195,
      "early": 1196,
      "public": 1197,
      "sources": 1198,
      "ident": 1199,
      "severely": 1200,
      "girls": 1201,
      "mor": 1202,
      "markets": 1203,
      "approximately": 1204,
      "##unction": 1205,
      "insecure": 1206,
      "unh": 1207,
      "##mber": 1208,
      "##vember": 1209,
      "diseases": 1210,
      "caused": 1211,
      "very": 1212,
      "doc": 1213,
      "gaz": 1214,
      "november": 1215,
      "infras": 1216,
      "gr": 1217,
      "##ici": 1218,
      "states": 1219,
      "infrastruc": 1220,
      "targe": 1221,
      "figh": 1222,
      "##quate": 1223,
      "hy": 1224,
      "begin": 1225,
      "cross": 1226,
      "##ove": 1227,
      "iss": 1228,
      "chall": 1229,
      "drinking": 1230,
      "continued": 1231,
      "rap": 1232,
      "##ture": 1233,
      "both": 1234,
      "palest": 1235,
      "##ep": 1236,
      "inv": 1237,
      "##ists": 1238,
      "gu": 1239,
      "lat": 1240,
      "##amb": 1241,
      "27": 1242,
      "ir": 1243,
      "days": 1244,
      "if": 1245,
      "los": 1246,
      "neigh": 1247,
      "measles": 1248,
      "gaza": 1249,
      "neighb": 1250,
      "nearly": 1251,
      "county": 1252,
      "experi": 1253,
      "vacc": 1254,
      "##ks": 1255,
      "##ests": 1256,
      "recorded": 1257,
      "100": 1258,
      "go": 1259,
      "##ft": 1260,
      "prim": 1261,
      "continues": 1262,
      "interv": 1263,
      "##ards": 1264,
      "prior": 1265,
      "threat": 1266,
      "elec": 1267,
      "unhcr": 1268,
      "household": 1269,
      "sec": 1270,
      "28": 1271,
      "21": 1272,
      "function": 1273,
      "few": 1274,
      "persons": 1275,
      "western": 1276,
      "##ger": 1277,
      "critical": 1278,
      "medic": 1279,
      "floods": 1280,
      "pastoral": 1281,
      "500": 1282,
      "##ecting": 1283,
      "##ality": 1284,
      "surve": 1285,
      "##essed": 1286,
      "face": 1287,
      "weeks": 1288,
      "same": 1289,
      "provinces": 1290,
      "##ower": 1291,
      "##raq": 1292,
      "lif": 1293,
      "mu": 1294,
      "##ested": 1295,
      "##istan": 1296,
      "impact": 1297,
      "##lie": 1298,
      "palestin": 1299,
      "crop": 1300,
      "##ues": 1301,
      "##asc": 1302,
      "##ana": 1303,
      "def": 1304,
      "treatment": 1305,
      "eth": 1306,
      "iraq": 1307,
      "##ert": 1308,
      "depart": 1309,
      "29": 1310,
      "isl": 1311,
      "above": 1312,
      "includ": 1313,
      "group": 1314,
      "##gi": 1315,
      "##eds": 1316,
      "infrastructure": 1317,
      "##ened": 1318,
      "##tered": 1319,
      "prob": 1320,
      "sol": 1321,
      "farmers": 1322,
      "system": 1323,
      "60": 1324,
      "##ision": 1325,
      "ear": 1326,
      "equ": 1327,
      "##thers": 1328,
      "2015": 1329,
      "26": 1330,
      "tem": 1331,
      "##itor": 1332,
      "flooding": 1333,
      "half": 1334,
      "thous": 1335,
      "inst": 1336,
      "decre": 1337,
      "##truction": 1338,
      "##ees": 1339,
      "restric": 1340,
      "centres": 1341,
      "electric": 1342,
      "fig": 1343,
      "soc": 1344,
      "econ": 1345,
      "provide": 1346,
      "build": 1347,
      "econom": 1348,
      "age": 1349,
      "received": 1350,
      "men": 1351,
      "##ned": 1352,
      "show": 1353,
      "available": 1354,
      "power": 1355,
      "##aps": 1356,
      "##fp": 1357,
      "fre": 1358,
      "regis": 1359,
      "##atory": 1360,
      "progr": 1361,
      "class": 1362,
      "comple": 1363,
      "##mal": 1364,
      "income": 1365,
      "arm": 1366,
      "poin": 1367,
      "hygi": 1368,
      "cle": 1369,
      "dar": 1370,
      "use": 1371,
      "##iel": 1372,
      "##ican": 1373,
      "##omb": 1374,
      "200": 1375,
      "##emen": 1376,
      "air": 1377,
      "led": 1378,
      "left": 1379,
      "diarr": 1380,
      "market": 1381,
      "direct": 1382,
      "diarrh": 1383,
      "##ily": 1384,
      "electricity": 1385,
      "star": 1386,
      "difficult": 1387,
      "injured": 1388,
      "born": 1389,
      "less": 1390,
      "ep": 1391,
      "##ea": 1392,
      "##ven": 1393,
      "sex": 1394,
      "beginning": 1395,
      "cop": 1396,
      "##oin": 1397,
      "any": 1398,
      "reduced": 1399,
      "##velop": 1400,
      "##han": 1401,
      "alth": 1402,
      "develop": 1403,
      "##icef": 1404,
      "hygiene": 1405,
      "down": 1406,
      "unicef": 1407,
      "although": 1408,
      "mak": 1409,
      "tak": 1410,
      "yemen": 1411,
      "##yan": 1412,
      "thousands": 1413,
      "rates": 1414,
      "##min": 1415,
      "##ind": 1416,
      "neg": 1417,
      "deliver": 1418,
      "##ked": 1419,
      "afr": 1420,
      "village": 1421,
      "teach": 1422,
      "##icient": 1423,
      "found": 1424,
      "mid": 1425,
      "pur": 1426,
      "rural": 1427,
      "##ten": 1428,
      "##most": 1429,
      "told": 1430,
      "##ised": 1431,
      "capac": 1432,
      "fund": 1433,
      "##ata": 1434,
      "extre": 1435,
      "hit": 1436,
      "##ok": 1437,
      "repr": 1438,
      "##ident": 1439,
      "availability": 1440,
      "fighting": 1441,
      "##lee": 1442,
      "higher": 1443,
      "fled": 1444,
      "prevent": 1445,
      "##umption": 1446,
      "labor": 1447,
      "##ics": 1448,
      "conduc": 1449,
      "settlements": 1450,
      "mem": 1451,
      "world": 1452,
      "spec": 1453,
      "##tim": 1454,
      "##cl": 1455,
      "spread": 1456,
      "previous": 1457,
      "died": 1458,
      "operations": 1459,
      "cover": 1460,
      "ham": 1461,
      "##aff": 1462,
      "almost": 1463,
      "disrup": 1464,
      "evac": 1465,
      "migrants": 1466,
      "flee": 1467,
      "ken": 1468,
      "##sh": 1469,
      "start": 1470,
      "outbreaks": 1471,
      "improve": 1472,
      "experienc": 1473,
      "before": 1474,
      "counties": 1475,
      "70": 1476,
      "##pite": 1477,
      "movement": 1478,
      "fat": 1479,
      "##other": 1480,
      "##par": 1481,
      "highest": 1482,
      "despite": 1483,
      "shortages": 1484,
      "##ocks": 1485,
      "##lief": 1486,
      "rice": 1487,
      "##gn": 1488,
      "army": 1489,
      "##ects": 1490,
      "israeli": 1491,
      "members": 1492,
      "others": 1493,
      "require": 1494,
      "awd": 1495,
      "life": 1496,
      "another": 1497,
      "workers": 1498,
      "second": 1499,
      "sal": 1500,
      "31": 1501,
      "##air": 1502,
      "serious": 1503,
      "ever": 1504,
      "##ave": 1505,
      "##cial": 1506,
      "consumption": 1507,
      "syrian": 1508,
      "somalia": 1509,
      "distribution": 1510,
      "ve": 1511,
      "wfp": 1512,
      "##icip": 1513,
      "along": 1514,
      "expl": 1515,
      "unt": 1516,
      "##ety": 1517,
      "concerns": 1518,
      "##uted": 1519,
      "##ital": 1520,
      "relief": 1521,
      "overall": 1522,
      "capacity": 1523,
      "fact": 1524,
      "person": 1525,
      "##idual": 1526,
      "##ender": 1527,
      "provided": 1528,
      "sector": 1529,
      "identified": 1530,
      "sexual": 1531,
      "her": 1532,
      "##ness": 1533,
      "##ese": 1534,
      "##ically": 1535,
      "negative": 1536,
      "ful": 1537,
      "##res": 1538,
      "##portun": 1539,
      "struc": 1540,
      "opportun": 1541,
      "would": 1542,
      "##xt": 1543,
      "palestinian": 1544,
      "##atic": 1545,
      "within": 1546,
      "##agement": 1547,
      "facing": 1548,
      "repres": 1549,
      "cy": 1550,
      "il": 1551,
      "proper": 1552,
      "price": 1553,
      "affecting": 1554,
      "additional": 1555,
      "docu": 1556,
      "cere": 1557,
      "ess": 1558,
      "pot": 1559,
      "pregn": 1560,
      "hospitals": 1561,
      "##na": 1562,
      "indiv": 1563,
      "internally": 1564,
      "primary": 1565,
      "mad": 1566,
      "seek": 1567,
      "stud": 1568,
      "##ives": 1569,
      "risks": 1570,
      "program": 1571,
      "individual": 1572,
      "cat": 1573,
      "er": 1574,
      "##pped": 1575,
      "police": 1576,
      "epid": 1577,
      "back": 1578,
      "lib": 1579,
      "##ling": 1580,
      "##ported": 1581,
      "ann": 1582,
      "include": 1583,
      "epidem": 1584,
      "old": 1585,
      "outs": 1586,
      "##iate": 1587,
      "##aria": 1588,
      "working": 1589,
      "challeng": 1590,
      "extreme": 1591,
      "##sible": 1592,
      "##err": 1593,
      "##ite": 1594,
      "##ara": 1595,
      "##ource": 1596,
      "requir": 1597,
      "resulted": 1598,
      "information": 1599,
      "##ged": 1600,
      "##hing": 1601,
      "staff": 1602,
      "surv": 1603,
      "economic": 1604,
      "es": 1605,
      "mater": 1606,
      "##uk": 1607,
      "##iop": 1608,
      "##acted": 1609,
      "seven": 1610,
      "locations": 1611,
      "essential": 1612,
      "80": 1613,
      "mun": 1614,
      "ethiop": 1615,
      "cost": 1616,
      "carr": 1617,
      "good": 1618,
      "##ala": 1619,
      "order": 1620,
      "##ours": 1621,
      "obs": 1622,
      "35": 1623,
      "nine": 1624,
      "##ider": 1625,
      "net": 1626,
      "##iven": 1627,
      "##ateg": 1628,
      "head": 1629,
      "car": 1630,
      "##mar": 1631,
      "outc": 1632,
      "ade": 1633,
      "mainly": 1634,
      "##imal": 1635,
      "lit": 1636,
      "##ined": 1637,
      "resources": 1638,
      "populations": 1639,
      "opportunities": 1640,
      "needed": 1641,
      "returnees": 1642,
      "syria": 1643,
      "##orts": 1644,
      "coord": 1645,
      "shortage": 1646,
      "started": 1647,
      "individuals": 1648,
      "##ha": 1649,
      "##ensive": 1650,
      "every": 1651,
      "late": 1652,
      "##yp": 1653,
      "##ility": 1654,
      "reporting": 1655,
      "leav": 1656,
      "kenya": 1657,
      "pregnant": 1658,
      "outcomes": 1659,
      "##iting": 1660,
      "##ions": 1661,
      "##ather": 1662,
      "fever": 1663,
      "family": 1664,
      "bang": 1665,
      "fall": 1666,
      "##imin": 1667,
      "ens": 1668,
      "team": 1669,
      "nf": 1670,
      "##itive": 1671,
      "arrivals": 1672,
      "33": 1673,
      "run": 1674,
      "close": 1675,
      "lives": 1676,
      "obser": 1677,
      "source": 1678,
      "consider": 1679,
      "tempor": 1680,
      "until": 1681,
      "32": 1682,
      "lost": 1683,
      "##man": 1684,
      "##inated": 1685,
      "incidents": 1686,
      "lean": 1687,
      "malaria": 1688,
      "closed": 1689,
      "coast": 1690,
      "coping": 1691,
      "gh": 1692,
      "##ron": 1693,
      "often": 1694,
      "disas": 1695,
      "management": 1696,
      "rohing": 1697,
      "agriculture": 1698,
      "bank": 1699,
      "cycl": 1700,
      "36": 1701,
      "ms": 1702,
      "tren": 1703,
      "##aj": 1704,
      "anal": 1705,
      "afgh": 1706,
      "social": 1707,
      "conducted": 1708,
      "##ones": 1709,
      "##oms": 1710,
      "she": 1711,
      "##encies": 1712,
      "urban": 1713,
      "##ectively": 1714,
      "45": 1715,
      "##nes": 1716,
      "##fr": 1717,
      "proj": 1718,
      "able": 1719,
      "agency": 1720,
      "normal": 1721,
      "open": 1722,
      "rapid": 1723,
      "rohingya": 1724,
      "gender": 1725,
      "sl": 1726,
      "##tain": 1727,
      "##itis": 1728,
      "cash": 1729,
      "press": 1730,
      "proble": 1731,
      "##ari": 1732,
      "##ange": 1733,
      "mob": 1734,
      "##ended": 1735,
      "says": 1736,
      "eight": 1737,
      "la": 1738,
      "##omm": 1739,
      "teachers": 1740,
      "##akh": 1741,
      "used": 1742,
      "neighbour": 1743,
      "42": 1744,
      "clu": 1745,
      "data": 1746,
      "key": 1747,
      "vic": 1748,
      "##tries": 1749,
      "##ster": 1750,
      "##iew": 1751,
      "kh": 1752,
      "win": 1753,
      "exist": 1754,
      "providing": 1755,
      "ethiopia": 1756,
      "sim": 1757,
      "wides": 1758,
      "##pread": 1759,
      "##dr": 1760,
      "centre": 1761,
      "service": 1762,
      "actors": 1763,
      "improved": 1764,
      "republic": 1765,
      "widespread": 1766,
      "300": 1767,
      "##lement": 1768,
      "terr": 1769,
      "roads": 1770,
      "registered": 1771,
      "outside": 1772,
      "meet": 1773,
      "governorate": 1774,
      "cereal": 1775,
      "34": 1776,
      "fiel": 1777,
      "##eding": 1778,
      "##ica": 1779,
      "contrib": 1780,
      "ant": 1781,
      "immed": 1782,
      "lower": 1783,
      "fear": 1784,
      "fail": 1785,
      "##wor": 1786,
      "casual": 1787,
      "import": 1788,
      "exce": 1789,
      "unable": 1790,
      "clash": 1791,
      "##elling": 1792,
      "small": 1793,
      "adequate": 1794,
      "get": 1795,
      "hours": 1796,
      "vis": 1797,
      "##erb": 1798,
      "sust": 1799,
      "purch": 1800,
      "cyclone": 1801,
      "just": 1802,
      "##wh": 1803,
      "##itution": 1804,
      "department": 1805,
      "fatality": 1806,
      "madag": 1807,
      "grow": 1808,
      "##aid": 1809,
      "##iated": 1810,
      "##care": 1811,
      "abu": 1812,
      "##undr": 1813,
      "latr": 1814,
      "his": 1815,
      "rest": 1816,
      "##sy": 1817,
      "##gest": 1818,
      "##wa": 1819,
      "place": 1820,
      "capital": 1821,
      "somali": 1822,
      "structur": 1823,
      "surviv": 1824,
      "cut": 1825,
      "hundr": 1826,
      "put": 1827,
      "##long": 1828,
      "stat": 1829,
      "countries": 1830,
      "##ploy": 1831,
      "dail": 1832,
      "own": 1833,
      "qual": 1834,
      "##mit": 1835,
      "##fur": 1836,
      "thir": 1837,
      "##umul": 1838,
      "healthcare": 1839,
      "located": 1840,
      "strateg": 1841,
      "dry": 1842,
      "reached": 1843,
      "help": 1844,
      "##ugg": 1845,
      "daily": 1846,
      "call": 1847,
      "wors": 1848,
      "depend": 1849,
      "##ascar": 1850,
      "madagascar": 1851,
      "gam": 1852,
      "ng": 1853,
      "pay": 1854,
      "allow": 1855,
      "storm": 1856,
      "stocks": 1857,
      "lear": 1858,
      "##quent": 1859,
      "mostly": 1860,
      "##ections": 1861,
      "efforts": 1862,
      "medicines": 1863,
      "90": 1864,
      "bar": 1865,
      "deng": 1866,
      "##gal": 1867,
      "dead": 1868,
      "arrived": 1869,
      "cluster": 1870,
      "kn": 1871,
      "##any": 1872,
      "##ances": 1873,
      "reason": 1874,
      "officials": 1875,
      "esc": 1876,
      "loo": 1877,
      "lands": 1878,
      "made": 1879,
      "##lad": 1880,
      "##aces": 1881,
      "rainy": 1882,
      "civilian": 1883,
      "scale": 1884,
      "loss": 1885,
      "intervention": 1886,
      "darfur": 1887,
      "clashes": 1888,
      "home": 1889,
      "##igation": 1890,
      "monitor": 1891,
      "safety": 1892,
      "general": 1893,
      "governorates": 1894,
      "invest": 1895,
      "leaving": 1896,
      "##sych": 1897,
      "psych": 1898,
      "##ift": 1899,
      "respond": 1900,
      "transport": 1901,
      "much": 1902,
      "represent": 1903,
      "challenges": 1904,
      "municip": 1905,
      "banglad": 1906,
      "bangladesh": 1907,
      "hun": 1908,
      "hect": 1909,
      "##ves": 1910,
      "##ourished": 1911,
      "contam": 1912,
      "clin": 1913,
      "positive": 1914,
      "clean": 1915,
      "##oint": 1916,
      "afghan": 1917,
      "37": 1918,
      "55": 1919,
      "dom": 1920,
      "rout": 1921,
      "##qa": 1922,
      "##ification": 1923,
      "suffering": 1924,
      "restrictions": 1925,
      "38": 1926,
      "den": 1927,
      "mat": 1928,
      "youn": 1929,
      "##af": 1930,
      "##aign": 1931,
      "campaign": 1932,
      "quar": 1933,
      "material": 1934,
      "dengue": 1935,
      "myan": 1936,
      "nam": 1937,
      "form": 1938,
      "##ports": 1939,
      "centers": 1940,
      "recently": 1941,
      "held": 1942,
      "occurr": 1943,
      "nigeria": 1944,
      "students": 1945,
      "myanmar": 1946,
      "km": 1947,
      "mult": 1948,
      "##ru": 1949,
      "##vir": 1950,
      "respectively": 1951,
      "destruction": 1952,
      "differ": 1953,
      "targeted": 1954,
      "gl": 1955,
      "vol": 1956,
      "##nel": 1957,
      "today": 1958,
      "##idence": 1959,
      "chron": 1960,
      "separ": 1961,
      "rise": 1962,
      "malnourished": 1963,
      "significantly": 1964,
      "detention": 1965,
      "development": 1966,
      "msf": 1967,
      "victim": 1968,
      "commit": 1969,
      "diarrho": 1970,
      "borno": 1971,
      "cumul": 1972,
      "given": 1973,
      "rad": 1974,
      "##ero": 1975,
      "##ares": 1976,
      "stand": 1977,
      "imm": 1978,
      "causing": 1979,
      "functioning": 1980,
      "hundreds": 1981,
      "fire": 1982,
      "##ao": 1983,
      "##di": 1984,
      "##abit": 1985,
      "remained": 1986,
      "cult": 1987,
      "jour": 1988,
      "our": 1989,
      "typ": 1990,
      "val": 1991,
      "zones": 1992,
      "provision": 1993,
      "stressed": 1994,
      "evic": 1995,
      "resulting": 1996,
      "glob": 1997,
      "39": 1998,
      "46": 1999,
      "cor": 2000,
      "moder": 2001,
      "should": 2002,
      "##osition": 2003,
      "site": 2004,
      "followed": 2005,
      "ensure": 2006,
      "bus": 2007,
      "sat": 2008,
      "##ending": 2009,
      "##tration": 2010,
      "##ays": 2011,
      "partially": 2012,
      "influ": 2013,
      "eng": 2014,
      "journ": 2015,
      "400": 2016,
      "coo": 2017,
      "cfr": 2018,
      "don": 2019,
      "nile": 2020,
      "opp": 2021,
      "##fs": 2022,
      "init": 2023,
      "turk": 2024,
      "document": 2025,
      "latrines": 2026,
      "43": 2027,
      "tan": 2028,
      "wat": 2029,
      "##ph": 2030,
      "##arious": 2031,
      "having": 2032,
      "commod": 2033,
      "newly": 2034,
      "raq": 2035,
      "##ogical": 2036,
      "cumulative": 2037,
      "rakh": 2038,
      "##ri": 2039,
      "##ex": 2040,
      "##mission": 2041,
      "##wards": 2042,
      "rele": 2043,
      "northe": 2044,
      "harvests": 2045,
      "islam": 2046,
      "rakhine": 2047,
      "mass": 2048,
      "##cess": 2049,
      "##arm": 2050,
      "##ular": 2051,
      "stor": 2052,
      "united": 2053,
      "adv": 2054,
      "worst": 2055,
      "simil": 2056,
      "##by": 2057,
      "##ead": 2058,
      "##ick": 2059,
      "##ise": 2060,
      "began": 2061,
      "next": 2062,
      "stay": 2063,
      "ground": 2064,
      "experienced": 2065,
      "temporary": 2066,
      "disaster": 2067,
      "hectares": 2068,
      "fem": 2069,
      "fish": 2070,
      "ke": 2071,
      "##uff": 2072,
      "##ane": 2073,
      "stap": 2074,
      "center": 2075,
      "media": 2076,
      "greater": 2077,
      "priority": 2078,
      "funding": 2079,
      "staple": 2080,
      "48": 2081,
      "mec": 2082,
      "make": 2083,
      "##arily": 2084,
      "asse": 2085,
      "##abl": 2086,
      "shar": 2087,
      "common": 2088,
      "demand": 2089,
      "present": 2090,
      "libya": 2091,
      "different": 2092,
      "victims": 2093,
      "diarrhoea": 2094,
      "global": 2095,
      "inade": 2096,
      "hand": 2097,
      "whe": 2098,
      "##uma": 2099,
      "exac": 2100,
      "##anda": 2101,
      "office": 2102,
      "preval": 2103,
      "persist": 2104,
      "networ": 2105,
      "quality": 2106,
      "take": 2107,
      "zone": 2108,
      "##ka": 2109,
      "##oa": 2110,
      "##ote": 2111,
      "##ont": 2112,
      "sea": 2113,
      "agencies": 2114,
      "decline": 2115,
      "possible": 2116,
      "exacerb": 2117,
      "pover": 2118,
      "##yl": 2119,
      "ret": 2120,
      "##ime": 2121,
      "coming": 2122,
      "priv": 2123,
      "abs": 2124,
      "establ": 2125,
      "violations": 2126,
      "organization": 2127,
      "buildings": 2128,
      "interventions": 2129,
      "poverty": 2130,
      "47": 2131,
      "bod": 2132,
      "gar": 2133,
      "##thing": 2134,
      "##ither": 2135,
      "numbers": 2136,
      "##ysis": 2137,
      "##ikes": 2138,
      "points": 2139,
      "inadequate": 2140,
      "though": 2141,
      "##alities": 2142,
      "##urs": 2143,
      "2014": 2144,
      "overc": 2145,
      "famine": 2146,
      "##uba": 2147,
      "##ounded": 2148,
      "trend": 2149,
      "chronic": 2150,
      "raqqa": 2151,
      "mechan": 2152,
      "52": 2153,
      "miss": 2154,
      "##str": 2155,
      "##alls": 2156,
      "dev": 2157,
      "comb": 2158,
      "decrease": 2159,
      "immediate": 2160,
      "casualties": 2161,
      "landsl": 2162,
      "65": 2163,
      "kil": 2164,
      "alle": 2165,
      "admin": 2166,
      "trad": 2167,
      "enough": 2168,
      "lg": 2169,
      "law": 2170,
      "##bel": 2171,
      "##ratic": 2172,
      "constr": 2173,
      "controlled": 2174,
      "leading": 2175,
      "iraqi": 2176,
      "evacuation": 2177,
      "41": 2178,
      "##onment": 2179,
      "see": 2180,
      "recover": 2181,
      "throughout": 2182,
      "using": 2183,
      "losses": 2184,
      "fully": 2185,
      "overcrow": 2186,
      "44": 2187,
      "##ense": 2188,
      "##enge": 2189,
      "##ators": 2190,
      "##ili": 2191,
      "stre": 2192,
      "saving": 2193,
      "##ually": 2194,
      "reloc": 2195,
      "receive": 2196,
      "political": 2197,
      "delivery": 2198,
      "laboratory": 2199,
      "adminis": 2200,
      "bal": 2201,
      "did": 2202,
      "gaps": 2203,
      "hurr": 2204,
      "##land": 2205,
      "##ma": 2206,
      "asyl": 2207,
      "isil": 2208,
      "##ched": 2209,
      "##plic": 2210,
      "shab": 2211,
      "assoc": 2212,
      "commission": 2213,
      "away": 2214,
      "quarter": 2215,
      "asylum": 2216,
      "either": 2217,
      "##ued": 2218,
      "envir": 2219,
      "##lier": 2220,
      "facility": 2221,
      "figure": 2222,
      "required": 2223,
      "mechanis": 2224,
      "congo": 2225,
      "##ples": 2226,
      "pract": 2227,
      "regional": 2228,
      "boys": 2229,
      "taken": 2230,
      "observed": 2231,
      "commodities": 2232,
      "ap": 2233,
      "kas": 2234,
      "trade": 2235,
      "##ipment": 2236,
      "returned": 2237,
      "collaps": 2238,
      "issues": 2239,
      "fleeing": 2240,
      "explos": 2241,
      "cattle": 2242,
      "600": 2243,
      "date": 2244,
      "nat": 2245,
      "vir": 2246,
      "##ful": 2247,
      "inside": 2248,
      "sufficient": 2249,
      "indicate": 2250,
      "earth": 2251,
      "earlier": 2252,
      "reasons": 2253,
      "##ike": 2254,
      "##aled": 2255,
      "##ount": 2256,
      "implement": 2257,
      "traff": 2258,
      "building": 2259,
      "radio": 2260,
      "lar": 2261,
      "nations": 2262,
      "wed": 2263,
      "##ji": 2264,
      "inh": 2265,
      "resid": 2266,
      "highl": 2267,
      "insuff": 2268,
      "clos": 2269,
      "operation": 2270,
      "materials": 2271,
      "opposition": 2272,
      "prevalence": 2273,
      "58": 2274,
      "pak": 2275,
      "sn": 2276,
      "##uce": 2277,
      "##que": 2278,
      "then": 2279,
      "whom": 2280,
      "post": 2281,
      "mean": 2282,
      "flooded": 2283,
      "results": 2284,
      "neighbor": 2285,
      "vaccination": 2286,
      "epidemic": 2287,
      "##ising": 2288,
      "conse": 2289,
      "sug": 2290,
      "chad": 2291,
      "##ung": 2292,
      "addr": 2293,
      "strong": 2294,
      "##anga": 2295,
      "diffa": 2296,
      "demol": 2297,
      "terms": 2298,
      "injuries": 2299,
      "bring": 2300,
      "systems": 2301,
      "equipment": 2302,
      "extremely": 2303,
      "structures": 2304,
      "status": 2305,
      "##ployment": 2306,
      "learning": 2307,
      "young": 2308,
      "insufficient": 2309,
      "each": 2310,
      "##pan": 2311,
      "##get": 2312,
      "monday": 2313,
      "surround": 2314,
      "##awi": 2315,
      "declared": 2316,
      "deterioration": 2317,
      "occup": 2318,
      "survey": 2319,
      "important": 2320,
      "immun": 2321,
      "hurrican": 2322,
      "##aim": 2323,
      "##ko": 2324,
      "rely": 2325,
      "forec": 2326,
      "##ells": 2327,
      "char": 2328,
      "orig": 2329,
      "irr": 2330,
      "interview": 2331,
      "##nesday": 2332,
      "slight": 2333,
      "sustained": 2334,
      "influx": 2335,
      "wednesday": 2336,
      "700": 2337,
      "cre": 2338,
      "yet": 2339,
      "##ca": 2340,
      "##cs": 2341,
      "##hic": 2342,
      "leave": 2343,
      "affect": 2344,
      "imports": 2345,
      "##izations": 2346,
      "impacted": 2347,
      "hard": 2348,
      "deple": 2349,
      "travel": 2350,
      "indicated": 2351,
      "invol": 2352,
      "ill": 2353,
      "property": 2354,
      "environment": 2355,
      "earthqu": 2356,
      "67": 2357,
      "ez": 2358,
      "lin": 2359,
      "tues": 2360,
      "##atives": 2361,
      "##ison": 2362,
      "##oming": 2363,
      "disp": 2364,
      "##hold": 2365,
      "particular": 2366,
      "complete": 2367,
      "airstr": 2368,
      "existing": 2369,
      "fields": 2370,
      "third": 2371,
      "afghanistan": 2372,
      "occurred": 2373,
      "tuesday": 2374,
      "bro": 2375,
      "bomb": 2376,
      "der": 2377,
      "line": 2378,
      "##let": 2379,
      "weather": 2380,
      "plant": 2381,
      "assessed": 2382,
      "measures": 2383,
      "receiving": 2384,
      "factors": 2385,
      "analysis": 2386,
      "territor": 2387,
      "watch": 2388,
      "75": 2389,
      "sor": 2390,
      "various": 2391,
      "##for": 2392,
      "prom": 2393,
      "uns": 2394,
      "referr": 2395,
      "recru": 2396,
      "estimates": 2397,
      "scar": 2398,
      "sudanese": 2399,
      "block": 2400,
      "finan": 2401,
      "great": 2402,
      "defic": 2403,
      "63": 2404,
      "tens": 2405,
      "you": 2406,
      "##oh": 2407,
      "##ption": 2408,
      "beh": 2409,
      "shelling": 2410,
      "watery": 2411,
      "presence": 2412,
      "organizations": 2413,
      "evacu": 2414,
      "nfis": 2415,
      "hunger": 2416,
      "pakistan": 2417,
      "##edom": 2418,
      "alert": 2419,
      "##ains": 2420,
      "##aining": 2421,
      "stop": 2422,
      "phys": 2423,
      "drc": 2424,
      "better": 2425,
      "attem": 2426,
      "##awa": 2427,
      "nutritional": 2428,
      "deteriorate": 2429,
      "##eshift": 2430,
      "doct": 2431,
      "makeshift": 2432,
      "abuse": 2433,
      "hurricane": 2434,
      "85": 2435,
      "bul": 2436,
      "cour": 2437,
      "eld": 2438,
      "mission": 2439,
      "##ino": 2440,
      "##ecut": 2441,
      "sund": 2442,
      "accessing": 2443,
      "communic": 2444,
      "remaining": 2445,
      "challenge": 2446,
      "functional": 2447,
      "soldi": 2448,
      "director": 2449,
      "africa": 2450,
      "coverage": 2451,
      "##mitted": 2452,
      "traffic": 2453,
      "tal": 2454,
      "##ina": 2455,
      "##ompan": 2456,
      "##sel": 2457,
      "outp": 2458,
      "counc": 2459,
      "##pping": 2460,
      "seasonal": 2461,
      "become": 2462,
      "intens": 2463,
      "taking": 2464,
      "announ": 2465,
      "little": 2466,
      "strategies": 2467,
      "kar": 2468,
      "night": 2469,
      "port": 2470,
      "##ory": 2471,
      "aged": 2472,
      "spe": 2473,
      "settlement": 2474,
      "special": 2475,
      "disrupted": 2476,
      "problems": 2477,
      "associated": 2478,
      "kasai": 2479,
      "origin": 2480,
      "sunday": 2481,
      "joint": 2482,
      "ton": 2483,
      "##vo": 2484,
      "##erous": 2485,
      "##eless": 2486,
      "chec": 2487,
      "means": 2488,
      "assessments": 2489,
      "operational": 2490,
      "term": 2491,
      "latest": 2492,
      "personnel": 2493,
      "pressure": 2494,
      "islamic": 2495,
      "pass": 2496,
      "ut": 2497,
      "##tive": 2498,
      "##sing": 2499,
      "thres": 2500,
      "##iness": 2501,
      "##arch": 2502,
      "remote": 2503,
      "minimal": 2504,
      "diarrhea": 2505,
      "growing": 2506,
      "monitoring": 2507,
      "journal": 2508,
      "assets": 2509,
      "wheat": 2510,
      "council": 2511,
      "nec": 2512,
      "##not": 2513,
      "##ges": 2514,
      "##itre": 2515,
      "##portion": 2516,
      "deir": 2517,
      "##agn": 2518,
      "agre": 2519,
      "##ences": 2520,
      "consum": 2521,
      "southe": 2522,
      "milk": 2523,
      "scre": 2524,
      "mosqu": 2525,
      "detained": 2526,
      "suffered": 2527,
      "##ropical": 2528,
      "longer": 2529,
      "eritre": 2530,
      "##ompanied": 2531,
      "54": 2532,
      "800": 2533,
      "ale": 2534,
      "kis": 2535,
      "sw": 2536,
      "tropical": 2537,
      "ug": 2538,
      "##iy": 2539,
      "##ei": 2540,
      "##itiz": 2541,
      "##reg": 2542,
      "##ila": 2543,
      "##iday": 2544,
      "increases": 2545,
      "money": 2546,
      "medicine": 2547,
      "##airs": 2548,
      "mobile": 2549,
      "62": 2550,
      "bag": 2551,
      "log": 2552,
      "##bv": 2553,
      "##amp": 2554,
      "seen": 2555,
      "##unt": 2556,
      "moh": 2557,
      "##ghum": 2558,
      "damages": 2559,
      "150": 2560,
      "pasture": 2561,
      "attacked": 2562,
      "times": 2563,
      "##ength": 2564,
      "informal": 2565,
      "island": 2566,
      "classified": 2567,
      "network": 2568,
      "collapsed": 2569,
      "sorghum": 2570,
      "dro": 2571,
      "hom": 2572,
      "##of": 2573,
      "towards": 2574,
      "##set": 2575,
      "what": 2576,
      "peace": 2577,
      "faced": 2578,
      "clo": 2579,
      "claim": 2580,
      "supported": 2581,
      "minim": 2582,
      "finding": 2583,
      "mortal": 2584,
      "winter": 2585,
      "constrain": 2586,
      "earthquake": 2587,
      "##ecutive": 2588,
      "49": 2589,
      "64": 2590,
      "reh": 2591,
      "weak": 2592,
      "added": 2593,
      "ent": 2594,
      "killing": 2595,
      "cannot": 2596,
      "minister": 2597,
      "friday": 2598,
      "neighbourhood": 2599,
      "dependent": 2600,
      "private": 2601,
      "68": 2602,
      "84": 2603,
      "bak": 2604,
      "dou": 2605,
      "must": 2606,
      "##sity": 2607,
      "##eal": 2608,
      "##erly": 2609,
      "##acy": 2610,
      "action": 2611,
      "therefore": 2612,
      "declined": 2613,
      "institution": 2614,
      "figures": 2615,
      "experiencing": 2616,
      "veget": 2617,
      "potential": 2618,
      "landslides": 2619,
      "72": 2620,
      "ah": 2621,
      "gra": 2622,
      "kid": 2623,
      "zamb": 2624,
      "thurs": 2625,
      "##ester": 2626,
      "##oro": 2627,
      "search": 2628,
      "##ably": 2629,
      "housing": 2630,
      "##ush": 2631,
      "diver": 2632,
      "places": 2633,
      "vulnerability": 2634,
      "departments": 2635,
      "female": 2636,
      "missing": 2637,
      "financial": 2638,
      "necess": 2639,
      "thursday": 2640,
      "hol": 2641,
      "##ida": 2642,
      "forc": 2643,
      "isol": 2644,
      "explo": 2645,
      "active": 2646,
      "african": 2647,
      "carried": 2648,
      "escal": 2649,
      "mortality": 2650,
      "bir": 2651,
      "cur": 2652,
      "eu": 2653,
      "juba": 2654,
      "inp": 2655,
      "##aries": 2656,
      "##ley": 2657,
      "disc": 2658,
      "##estic": 2659,
      "resum": 2660,
      "democ": 2661,
      "urgently": 2662,
      "increasingly": 2663,
      "borne": 2664,
      "ghout": 2665,
      "committe": 2666,
      "soldiers": 2667,
      "59": 2668,
      "71": 2669,
      "cert": 2670,
      "sel": 2671,
      "ten": 2672,
      "way": 2673,
      "##lation": 2674,
      "##ats": 2675,
      "##ito": 2676,
      "##alem": 2677,
      "##ania": 2678,
      "##uri": 2679,
      "##tracted": 2680,
      "prolong": 2681,
      "abduc": 2682,
      "ago": 2683,
      "samples": 2684,
      "decreased": 2685,
      "goods": 2686,
      "##quently": 2687,
      "released": 2688,
      "bre": 2689,
      "citiz": 2690,
      "table": 2691,
      "##oid": 2692,
      "##gad": 2693,
      "sum": 2694,
      "anim": 2695,
      "##key": 2696,
      "rising": 2697,
      "brid": 2698,
      "address": 2699,
      "elderly": 2700,
      "threshold": 2701,
      "57": 2702,
      "66": 2703,
      "61": 2704,
      "77": 2705,
      "sab": 2706,
      "##ba": 2707,
      "##ier": 2708,
      "##nic": 2709,
      "##worm": 2710,
      "thus": 2711,
      "took": 2712,
      "rev": 2713,
      "force": 2714,
      "haz": 2715,
      "proportion": 2716,
      "##ppo": 2717,
      "##ibility": 2718,
      "truc": 2719,
      "accessible": 2720,
      "camero": 2721,
      "prep": 2722,
      "impac": 2723,
      "strugg": 2724,
      "parents": 2725,
      "nearby": 2726,
      "armyworm": 2727,
      "sharp": 2728,
      "mechanisms": 2729,
      "cameroon": 2730,
      "56": 2731,
      "bes": 2732,
      "bay": 2733,
      "mus": 2734,
      "nation": 2735,
      "vi": 2736,
      "yester": 2737,
      "##oad": 2738,
      "##ets": 2739,
      "##form": 2740,
      "##inh": 2741,
      "too": 2742,
      "##ental": 2743,
      "const": 2744,
      "foods": 2745,
      "amb": 2746,
      "farming": 2747,
      "burund": 2748,
      "issued": 2749,
      "seekers": 2750,
      "programme": 2751,
      "coordination": 2752,
      "coastal": 2753,
      "business": 2754,
      "cooking": 2755,
      "surrounding": 2756,
      "irrigation": 2757,
      "attemp": 2758,
      "aleppo": 2759,
      "ghouta": 2760,
      "animals": 2761,
      "yesterday": 2762,
      "dang": 2763,
      "eg": 2764,
      "##za": 2765,
      "##ery": 2766,
      "##orr": 2767,
      "##ession": 2768,
      "##aging": 2769,
      "##uss": 2770,
      "##kets": 2771,
      "enter": 2772,
      "consult": 2773,
      "relative": 2774,
      "northw": 2775,
      "##ika": 2776,
      "crossing": 2777,
      "survivors": 2778,
      "absence": 2779,
      "check": 2780,
      "constraints": 2781,
      "95": 2782,
      "bah": 2783,
      "mening": 2784,
      "orom": 2785,
      "pip": 2786,
      "rations": 2787,
      "sk": 2788,
      "##ne": 2789,
      "##clu": 2790,
      "##ret": 2791,
      "##ological": 2792,
      "height": 2793,
      "afford": 2794,
      "commer": 2795,
      "boko": 2796,
      "transmission": 2797,
      "delay": 2798,
      "quant": 2799,
      "##ployed": 2800,
      "equator": 2801,
      "teams": 2802,
      "purchasing": 2803,
      "similar": 2804,
      "natural": 2805,
      "slightly": 2806,
      "uganda": 2807,
      "rehabil": 2808,
      "democratic": 2809,
      "bat": 2810,
      "cause": 2811,
      "foc": 2812,
      "oil": 2813,
      "tw": 2814,
      "reve": 2815,
      "peak": 2816,
      "##pper": 2817,
      "strength": 2818,
      "haram": 2819,
      "returning": 2820,
      "continuous": 2821,
      "generally": 2822,
      "sectors": 2823,
      "neighbouring": 2824,
      "consequ": 2825,
      "announced": 2826,
      "76": 2827,
      "73": 2828,
      "bene": 2829,
      "baid": 2830,
      "iom": 2831,
      "##rc": 2832,
      "##ilities": 2833,
      "##ops": 2834,
      "incident": 2835,
      "come": 2836,
      "reser": 2837,
      "moreover": 2838,
      "infections": 2839,
      "damasc": 2840,
      "authority": 2841,
      "subst": 2842,
      "point": 2843,
      "making": 2844,
      "projected": 2845,
      "##while": 2846,
      "moderate": 2847,
      "satur": 2848,
      "##plications": 2849,
      "forecast": 2850,
      "physical": 2851,
      "minimum": 2852,
      "prolonged": 2853,
      "damascus": 2854,
      "74": 2855,
      "nino": 2856,
      "##isation": 2857,
      "##oles": 2858,
      "once": 2859,
      "onset": 2860,
      "hep": 2861,
      "##used": 2862,
      "consecutive": 2863,
      "treated": 2864,
      "effects": 2865,
      "largely": 2866,
      "specific": 2867,
      "explosive": 2868,
      "largest": 2869,
      "meanwhile": 2870,
      "airstrikes": 2871,
      "derna": 2872,
      "doctors": 2873,
      "87": 2874,
      "gas": 2875,
      "ho": 2876,
      "sent": 2877,
      "wit": 2878,
      "zor": 2879,
      "##bi": 2880,
      "##eting": 2881,
      "##zuel": 2882,
      "##ins": 2883,
      "alone": 2884,
      "station": 2885,
      "animal": 2886,
      "##aka": 2887,
      "##abilities": 2888,
      "planting": 2889,
      "president": 2890,
      "labour": 2891,
      "issue": 2892,
      "probable": 2893,
      "called": 2894,
      "domestic": 2895,
      "body": 2896,
      "evacuated": 2897,
      "doub": 2898,
      "saturday": 2899,
      "bad": 2900,
      "cities": 2901,
      "kord": 2902,
      "ny": 2903,
      "vene": 2904,
      "##aab": 2905,
      "##och": 2906,
      "##ee": 2907,
      "##way": 2908,
      "##atitis": 2909,
      "##ented": 2910,
      "##istics": 2911,
      "regular": 2912,
      "##perat": 2913,
      "inflation": 2914,
      "##achin": 2915,
      "towns": 2916,
      "ethnic": 2917,
      "temperat": 2918,
      "considered": 2919,
      "problem": 2920,
      "committee": 2921,
      "equatoria": 2922,
      "benef": 2923,
      "baidoa": 2924,
      "hepatitis": 2925,
      "tents": 2926,
      "upper": 2927,
      "##isc": 2928,
      "##oll": 2929,
      "##uting": 2930,
      "refl": 2931,
      "flour": 2932,
      "mah": 2933,
      "enrol": 2934,
      "##iple": 2935,
      "##tegr": 2936,
      "polio": 2937,
      "distributed": 2938,
      "morning": 2939,
      "failure": 2940,
      "psychos": 2941,
      "respondents": 2942,
      "contamination": 2943,
      "alleged": 2944,
      "virus": 2945,
      "journalists": 2946,
      "venezuel": 2947,
      "az": 2948,
      "done": 2949,
      "hu": 2950,
      "wa": 2951,
      "wal": 2952,
      "wounded": 2953,
      "##hip": 2954,
      "##itr": 2955,
      "top": 2956,
      "##lei": 2957,
      "##theria": 2958,
      "ord": 2959,
      "marri": 2960,
      "subs": 2961,
      "turkey": 2962,
      "full": 2963,
      "coordin": 2964,
      "nfi": 2965,
      "contaminated": 2966,
      "turkana": 2967,
      "established": 2968,
      "overcrowded": 2969,
      "##ofan": 2970,
      "meningitis": 2971,
      "kordofan": 2972,
      "51": 2973,
      "ta": 2974,
      "test": 2975,
      "##ew": 2976,
      "##men": 2977,
      "##wide": 2978,
      "##ech": 2979,
      "##ura": 2980,
      "##ocial": 2981,
      "accomm": 2982,
      "##ify": 2983,
      "came": 2984,
      "highly": 2985,
      "prec": 2986,
      "feeding": 2987,
      "strip": 2988,
      "construction": 2989,
      "reduction": 2990,
      "deteriorated": 2991,
      "shows": 2992,
      "showed": 2993,
      "directly": 2994,
      "immunization": 2995,
      "territory": 2996,
      "psychosocial": 2997,
      "accommod": 2998,
      "bor": 2999,
      "##lim": 3000,
      "##aring": 3001,
      "##ided": 3002,
      "acce": 3003,
      "##ches": 3004,
      "noted": 3005,
      "unp": 3006,
      "diph": 3007,
      "infected": 3008,
      "##ava": 3009,
      "event": 3010,
      "protect": 3011,
      "transf": 3012,
      "arrival": 3013,
      "front": 3014,
      "migration": 3015,
      "smugg": 3016,
      "targeting": 3017,
      "threats": 3018,
      "includes": 3019,
      "vehic": 3020,
      "costs": 3021,
      "documented": 3022,
      "northeast": 3023,
      "exacerbated": 3024,
      "recovery": 3025,
      "citizens": 3026,
      "diphtheria": 3027,
      "86": 3028,
      "barr": 3029,
      "ce": 3030,
      "jong": 3031,
      "rub": 3032,
      "tested": 3033,
      "##born": 3034,
      "##ool": 3035,
      "##akes": 3036,
      "leban": 3037,
      "unacc": 3038,
      "##ague": 3039,
      "included": 3040,
      "worse": 3041,
      "reduce": 3042,
      "particip": 3043,
      "approach": 3044,
      "does": 3045,
      "secondary": 3046,
      "negatively": 3047,
      "except": 3048,
      "looted": 3049,
      "cultiv": 3050,
      "initial": 3051,
      "practices": 3052,
      "linked": 3053,
      "completely": 3054,
      "recruit": 3055,
      "00": 3056,
      "53": 3057,
      "pump": 3058,
      "ran": 3059,
      "##be": 3060,
      "##ements": 3061,
      "##irc": 3062,
      "dist": 3063,
      "##ows": 3064,
      "sometim": 3065,
      "stress": 3066,
      "sett": 3067,
      "arriving": 3068,
      "restricted": 3069,
      "documents": 3070,
      "winds": 3071,
      "known": 3072,
      "clinics": 3073,
      "evictions": 3074,
      "devast": 3075,
      "summ": 3076,
      "muslim": 3077,
      "jonglei": 3078,
      "sometimes": 3079,
      "82": 3080,
      "88": 3081,
      "91": 3082,
      "gbv": 3083,
      "jer": 3084,
      "##ti": 3085,
      "##bar": 3086,
      "##kn": 3087,
      "##kh": 3088,
      "##ypt": 3089,
      "##ward": 3090,
      "contr": 3091,
      "##porting": 3092,
      "white": 3093,
      "alarm": 3094,
      "diet": 3095,
      "##ape": 3096,
      "flash": 3097,
      "coal": 3098,
      "movements": 3099,
      "##obe": 3100,
      "iran": 3101,
      "palestinians": 3102,
      "classro": 3103,
      "running": 3104,
      "transportation": 3105,
      "multiple": 3106,
      "exploitation": 3107,
      "commercial": 3108,
      "ged": 3109,
      "job": 3110,
      "mand": 3111,
      "##cy": 3112,
      "##isted": 3113,
      "##tra": 3114,
      "bel": 3115,
      "space": 3116,
      "expos": 3117,
      "exposed": 3118,
      "arrested": 3119,
      "concerned": 3120,
      "doz": 3121,
      "trauma": 3122,
      "leaders": 3123,
      "rape": 3124,
      "free": 3125,
      "municipalities": 3126,
      "entire": 3127,
      "institutions": 3128,
      "oromia": 3129,
      "unaccompanied": 3130,
      "pa": 3131,
      "roo": 3132,
      "##he": 3133,
      "2012": 3134,
      "moz": 3135,
      "##uses": 3136,
      "regime": 3137,
      "clim": 3138,
      "met": 3139,
      "meeting": 3140,
      "returns": 3141,
      "find": 3142,
      "freedom": 3143,
      "anticip": 3144,
      "valley": 3145,
      "mosquito": 3146,
      "egypt": 3147,
      "checkp": 3148,
      "01": 3149,
      "89": 3150,
      "bab": 3151,
      "je": 3152,
      "kits": 3153,
      "pul": 3154,
      "##ta": 3155,
      "##ique": 3156,
      "##urd": 3157,
      "formal": 3158,
      "depr": 3159,
      "saw": 3160,
      "surveill": 3161,
      "staying": 3162,
      "kilome": 3163,
      "ed": 3164,
      "kiv": 3165,
      "lact": 3166,
      "mention": 3167,
      "wast": 3168,
      "wells": 3169,
      "##side": 3170,
      "##lers": 3171,
      "protracted": 3172,
      "##emic": 3173,
      "expr": 3174,
      "legal": 3175,
      "##usalem": 3176,
      "ability": 3177,
      "admitted": 3178,
      "managed": 3179,
      "harass": 3180,
      "relatives": 3181,
      "##issa": 3182,
      "##utions": 3183,
      "borders": 3184,
      "reaching": 3185,
      "improvement": 3186,
      "##ajir": 3187,
      "laun": 3188,
      "worsening": 3189,
      "storage": 3190,
      "interviewed": 3191,
      "zambia": 3192,
      "certain": 3193,
      "temperatures": 3194,
      "jerusalem": 3195,
      "surveillance": 3196,
      "kivu": 3197,
      "78": 3198,
      "ram": 3199,
      "integr": 3200,
      "##ani": 3201,
      "##roduc": 3202,
      "fore": 3203,
      "seeds": 3204,
      "stock": 3205,
      "##umb": 3206,
      "##adi": 3207,
      "attrib": 3208,
      "##pled": 3209,
      "drug": 3210,
      "minor": 3211,
      "appear": 3212,
      "##azar": 3213,
      "colomb": 3214,
      "##udi": 3215,
      "##ief": 3216,
      "hosting": 3217,
      "landm": 3218,
      "heavily": 3219,
      "indicates": 3220,
      "going": 3221,
      "fews": 3222,
      "hama": 3223,
      "improvements": 3224,
      "investig": 3225,
      "lga": 3226,
      "closure": 3227,
      "##selves": 3228,
      "screening": 3229,
      "europ": 3230,
      "mozamb": 3231,
      "poc": 3232,
      "##gol": 3233,
      "tol": 3234,
      "##ilt": 3235,
      "prof": 3236,
      "perform": 3237,
      "seasons": 3238,
      "statement": 3239,
      "themselves": 3240,
      "additionally": 3241,
      "120": 3242,
      "##ude": 3243,
      "target": 3244,
      "##eping": 3245,
      "experience": 3246,
      "vaccine": 3247,
      "primarily": 3248,
      "clear": 3249,
      "difficulties": 3250,
      "northeastern": 3251,
      "combined": 3252,
      "illness": 3253,
      "trafficking": 3254,
      "tonnes": 3255,
      "revealed": 3256,
      "europe": 3257,
      "900": 3258,
      "doll": 3259,
      "gun": 3260,
      "lake": 3261,
      "mt": 3262,
      "mm": 3263,
      "sell": 3264,
      "vast": 3265,
      "##yr": 3266,
      "##eder": 3267,
      "sew": 3268,
      "##aya": 3269,
      "accoun": 3270,
      "unf": 3271,
      "margin": 3272,
      "prepar": 3273,
      "decision": 3274,
      "plague": 3275,
      "spaces": 3276,
      "attend": 3277,
      "prevention": 3278,
      "suspended": 3279,
      "reducing": 3280,
      "warned": 3281,
      "fighters": 3282,
      "ille": 3283,
      "tanz": 3284,
      "behind": 3285,
      "findings": 3286,
      "lactating": 3287,
      "foreign": 3288,
      "83": 3289,
      "brought": 3290,
      "tam": 3291,
      "##ov": 3292,
      "##more": 3293,
      "##mits": 3294,
      "##arding": 3295,
      "rebel": 3296,
      "##urg": 3297,
      "belong": 3298,
      "process": 3299,
      "stable": 3300,
      "##cha": 3301,
      "2013": 3302,
      "##ables": 3303,
      "compl": 3304,
      "##itional": 3305,
      "mali": 3306,
      "meals": 3307,
      "amn": 3308,
      "monthly": 3309,
      "acutely": 3310,
      "upd": 3311,
      "avoid": 3312,
      "educational": 3313,
      "farms": 3314,
      "poss": 3315,
      "registration": 3316,
      "hamper": 3317,
      "carrying": 3318,
      "fishing": 3319,
      "##aneous": 3320,
      "youth": 3321,
      "consequences": 3322,
      "ben": 3323,
      "circ": 3324,
      "fut": 3325,
      "##uh": 3326,
      "##uz": 3327,
      "##limin": 3328,
      "##dle": 3329,
      "##dah": 3330,
      "##ja": 3331,
      "##asa": 3332,
      "##ama": 3333,
      "##idity": 3334,
      "isis": 3335,
      "##esty": 3336,
      "shut": 3337,
      "idle": 3338,
      "infection": 3339,
      "##ishu": 3340,
      "liber": 3341,
      "causes": 3342,
      "grand": 3343,
      "pastoralists": 3344,
      "middle": 3345,
      "separated": 3346,
      "bringing": 3347,
      "court": 3348,
      "neighbourhoods": 3349,
      "kidna": 3350,
      "necessary": 3351,
      "consultations": 3352,
      "alarming": 3353,
      "tanzania": 3354,
      "amnesty": 3355,
      "drop": 3356,
      "gap": 3357,
      "mental": 3358,
      "tana": 3359,
      "##awo": 3360,
      "##iation": 3361,
      "##sava": 3362,
      "##den": 3363,
      "change": 3364,
      "cassava": 3365,
      "moved": 3366,
      "##aking": 3367,
      "permits": 3368,
      "prison": 3369,
      "##agers": 3370,
      "prelimin": 3371,
      "enawo": 3372,
      "amid": 3373,
      "recons": 3374,
      "products": 3375,
      "cold": 3376,
      "provincial": 3377,
      "grain": 3378,
      "disruption": 3379,
      "herd": 3380,
      "represents": 3381,
      "garissa": 3382,
      "depleted": 3383,
      "birth": 3384,
      "preliminary": 3385,
      "81": 3386,
      "93": 3387,
      "big": 3388,
      "fao": 3389,
      "kab": 3390,
      "##ips": 3391,
      "inund": 3392,
      "##itute": 3393,
      "##utes": 3394,
      "##iratory": 3395,
      "incidence": 3396,
      "resc": 3397,
      "moving": 3398,
      "unem": 3399,
      "unkn": 3400,
      "affairs": 3401,
      "##istent": 3402,
      "arb": 3403,
      "agg": 3404,
      "##apse": 3405,
      "worr": 3406,
      "male": 3407,
      "employment": 3408,
      "evidence": 3409,
      "respiratory": 3410,
      "##iolo": 3411,
      "##ension": 3412,
      "violent": 3413,
      "##crib": 3414,
      "townsh": 3415,
      "buy": 3416,
      "officers": 3417,
      "intense": 3418,
      "secret": 3419,
      "explained": 3420,
      "annual": 3421,
      "rapidly": 3422,
      "know": 3423,
      "municipality": 3424,
      "routes": 3425,
      "denied": 3426,
      "former": 3427,
      "neighboring": 3428,
      "stopp": 3429,
      "output": 3430,
      "agreement": 3431,
      "marriage": 3432,
      "dozens": 3433,
      "harassment": 3434,
      "mozambique": 3435,
      "unknown": 3436,
      "96": 3437,
      "et": 3438,
      "jord": 3439,
      "kap": 3440,
      "kind": 3441,
      "kachin": 3442,
      "ru": 3443,
      "sd": 3444,
      "sen": 3445,
      "swe": 3446,
      "tor": 3447,
      "went": 3448,
      "##pe": 3449,
      "##ging": 3450,
      "##ars": 3451,
      "##thes": 3452,
      "assa": 3453,
      "feed": 3454,
      "amount": 3455,
      "sana": 3456,
      "appropr": 3457,
      "trees": 3458,
      "hostilities": 3459,
      "demons": 3460,
      "detail": 3461,
      "warning": 3462,
      "complex": 3463,
      "observ": 3464,
      "field": 3465,
      "allowed": 3466,
      "domin": 3467,
      "name": 3468,
      "advoc": 3469,
      "tensions": 3470,
      "southeastern": 3471,
      "homeless": 3472,
      "bahr": 3473,
      "rehabilitation": 3474,
      "huday": 3475,
      "recruitment": 3476,
      "coalition": 3477,
      "future": 3478,
      "jordan": 3479,
      "98": 3480,
      "bread": 3481,
      "cou": 3482,
      "dj": 3483,
      "ew": 3484,
      "ele": 3485,
      "wajir": 3486,
      "##ias": 3487,
      "##line": 3488,
      "##mes": 3489,
      "##city": 3490,
      "##reh": 3491,
      "##ame": 3492,
      "concent": 3493,
      "stated": 3494,
      "##iving": 3495,
      "##ades": 3496,
      "mogad": 3497,
      "arab": 3498,
      "southw": 3499,
      "undert": 3500,
      "locality": 3501,
      "furthermore": 3502,
      "collective": 3503,
      "collapse": 3504,
      "planted": 3505,
      "surveyed": 3506,
      "libyan": 3507,
      "turkish": 3508,
      "administr": 3509,
      "commissioner": 3510,
      "residing": 3511,
      "demolition": 3512,
      "##force": 3513,
      "besie": 3514,
      "relatively": 3515,
      "delayed": 3516,
      "focus": 3517,
      "attributed": 3518,
      "hudaydah": 3519,
      "concentr": 3520,
      "mogadishu": 3521,
      "79": 3522,
      "97": 3523,
      "fav": 3524,
      "hop": 3525,
      "sle": 3526,
      "##bu": 3527,
      "##va": 3528,
      "##oma": 3529,
      "isiolo": 3530,
      "chur": 3531,
      "deep": 3532,
      "sah": 3533,
      "save": 3534,
      "imported": 3535,
      "##ibly": 3536,
      "monso": 3537,
      "feel": 3538,
      "##endit": 3539,
      "##ishment": 3540,
      "arrive": 3541,
      "usd": 3542,
      "describ": 3543,
      "##atient": 3544,
      "syrians": 3545,
      "subj": 3546,
      "250": 3547,
      "trapped": 3548,
      "obtain": 3549,
      "##ields": 3550,
      "previously": 3551,
      "epidemiol": 3552,
      "requiring": 3553,
      "moderately": 3554,
      "dropped": 3555,
      "burundi": 3556,
      "idleb": 3557,
      "dab": 3558,
      "mr": 3559,
      "nd": 3560,
      "ocha": 3561,
      "rose": 3562,
      "right": 3563,
      "range": 3564,
      "spr": 3565,
      "uk": 3566,
      "yobe": 3567,
      "##yn": 3568,
      "##hr": 3569,
      "ing": 3570,
      "##ism": 3571,
      "real": 3572,
      "altern": 3573,
      "##umon": 3574,
      "adam": 3575,
      "supporting": 3576,
      "sym": 3577,
      "operating": 3578,
      "militants": 3579,
      "improving": 3580,
      "built": 3581,
      "planning": 3582,
      "blan": 3583,
      "deteriorating": 3584,
      "threatening": 3585,
      "ngos": 3586,
      "massive": 3587,
      "retake": 3588,
      "relocated": 3589,
      "involved": 3590,
      "scarcity": 3591,
      "eritrea": 3592,
      "diversity": 3593,
      "bed": 3594,
      "kurd": 3595,
      "lo": 3596,
      "ngo": 3597,
      "push": 3598,
      "rw": 3599,
      "rang": 3600,
      "round": 3601,
      "sing": 3602,
      "selling": 3603,
      "tort": 3604,
      "want": 3605,
      "##ext": 3606,
      "##erc": 3607,
      "##iti": 3608,
      "read": 3609,
      "##oum": 3610,
      "##tres": 3611,
      "##gether": 3612,
      "##elle": 3613,
      "discr": 3614,
      "##add": 3615,
      "2010": 3616,
      "##aba": 3617,
      "##aga": 3618,
      "context": 3619,
      "weap": 3620,
      "##iban": 3621,
      "trying": 3622,
      "facilit": 3623,
      "surge": 3624,
      "surveys": 3625,
      "cope": 3626,
      "seeking": 3627,
      "programmes": 3628,
      "headed": 3629,
      "ghaz": 3630,
      "failed": 3631,
      "clinic": 3632,
      "similarly": 3633,
      "administration": 3634,
      "neighborhood": 3635,
      "deficit": 3636,
      "deficits": 3637,
      "logistics": 3638,
      "clothes": 3639,
      "classrooms": 3640,
      "besieged": 3641,
      "billion": 3642,
      "bazar": 3643,
      "later": 3644,
      "mel": 3645,
      "mud": 3646,
      "tang": 3647,
      "wau": 3648,
      "##tiv": 3649,
      "##app": 3650,
      "##ns": 3651,
      "##edic": 3652,
      "##eness": 3653,
      "rein": 3654,
      "##ived": 3655,
      "##ado": 3656,
      "mod": 3657,
      "unity": 3658,
      "##ght": 3659,
      "contain": 3660,
      "aband": 3661,
      "mars": 3662,
      "adoles": 3663,
      "trib": 3664,
      "trip": 3665,
      "training": 3666,
      "displacements": 3667,
      "numerous": 3668,
      "relig": 3669,
      "cox": 3670,
      "villagers": 3671,
      "planned": 3672,
      "saying": 3673,
      "economy": 3674,
      "mobil": 3675,
      "contributed": 3676,
      "##anyika": 3677,
      "psychological": 3678,
      "referral": 3679,
      "resumed": 3680,
      "ambul": 3681,
      "toll": 3682,
      "aggra": 3683,
      "05": 3684,
      "cal": 3685,
      "div": 3686,
      "here": 3687,
      "kal": 3688,
      "my": 3689,
      "nur": 3690,
      "pi": 3691,
      "via": 3692,
      "##ken": 3693,
      "##ita": 3694,
      "bey": 3695,
      "beg": 3696,
      "stun": 3697,
      "##adic": 3698,
      "deployed": 3699,
      "deyr": 3700,
      "account": 3701,
      "unit": 3702,
      "units": 3703,
      "unex": 3704,
      "arra": 3705,
      "##ket": 3706,
      "parties": 3707,
      "confisc": 3708,
      "whose": 3709,
      "##eta": 3710,
      "offer": 3711,
      "killings": 3712,
      "activists": 3713,
      "ending": 3714,
      "extensive": 3715,
      "##ixed": 3716,
      "repair": 3717,
      "rivers": 3718,
      "occur": 3719,
      "purchase": 3720,
      "putting": 3721,
      "multi": 3722,
      "lgas": 3723,
      "inhabit": 3724,
      "occupied": 3725,
      "inputs": 3726,
      "discuss": 3727,
      "self": 3728,
      "struggling": 3729,
      "northwest": 3730,
      "substant": 3731,
      "coordinator": 3732,
      "stopped": 3733,
      "single": 3734,
      "torture": 3735,
      "marsabit": 3736,
      "aggrav": 3737,
      "92": 3738,
      "break": 3739,
      "hist": 3740,
      "member": 3741,
      "sale": 3742,
      "##ien": 3743,
      "##mi": 3744,
      "##dp": 3745,
      "##acter": 3746,
      "##eload": 3747,
      "incomes": 3748,
      "caseload": 3749,
      "##astrop": 3750,
      "abuses": 3751,
      "strike": 3752,
      "##assa": 3753,
      "continuing": 3754,
      "millet": 3755,
      "opened": 3756,
      "confirm": 3757,
      "soci": 3758,
      "catastrop": 3759,
      "visited": 3760,
      "environmental": 3761,
      "##borne": 3762,
      "mandera": 3763,
      "mentioned": 3764,
      "marginal": 3765,
      "arbitr": 3766,
      "feder": 3767,
      "kit": 3768,
      "kut": 3769,
      "lam": 3770,
      "tech": 3771,
      "wind": 3772,
      "##ua": 3773,
      "##iately": 3774,
      "##ez": 3775,
      "##cle": 3776,
      "##erence": 3777,
      "##ils": 3778,
      "belie": 3779,
      "##ams": 3780,
      "conn": 3781,
      "##ults": 3782,
      "chem": 3783,
      "##ival": 3784,
      "##imination": 3785,
      "deb": 3786,
      "##aken": 3787,
      "shot": 3788,
      "waterborne": 3789,
      "art": 3790,
      "crimin": 3791,
      "maid": 3792,
      "driven": 3793,
      "evening": 3794,
      "attention": 3795,
      "woman": 3796,
      "poorest": 3797,
      "limit": 3798,
      "soon": 3799,
      "repe": 3800,
      "priorit": 3801,
      "factor": 3802,
      "trends": 3803,
      "survival": 3804,
      "broke": 3805,
      "taliban": 3806,
      "utc": 3807,
      "bridges": 3808,
      "prepared": 3809,
      "waste": 3810,
      "expressed": 3811,
      "demonstr": 3812,
      "monsoon": 3813,
      "dabanga": 3814,
      "beyond": 3815,
      "69": 3816,
      "mas": 3817,
      "spl": 3818,
      "wide": 3819,
      "yei": 3820,
      "##uj": 3821,
      "##rain": 3822,
      "##ler": 3823,
      "##ato": 3824,
      "##areness": 3825,
      "together": 3826,
      "##entially": 3827,
      "forms": 3828,
      "##ira": 3829,
      "suic": 3830,
      "resor": 3831,
      "shan": 3832,
      "saudi": 3833,
      "regul": 3834,
      "regarding": 3835,
      "trig": 3836,
      "pref": 3837,
      "imposed": 3838,
      "crow": 3839,
      "compounded": 3840,
      "news": 3841,
      "indep": 3842,
      "desper": 3843,
      "awareness": 3844,
      "morb": 3845,
      "completed": 3846,
      "spreading": 3847,
      "matern": 3848,
      "temporarily": 3849,
      "disasters": 3850,
      "deadly": 3851,
      "investigation": 3852,
      "routine": 3853,
      "overcrowding": 3854,
      "scarce": 3855,
      "impacts": 3856,
      "dietary": 3857,
      "illegal": 3858,
      "inundated": 3859,
      "kapo": 3860,
      "described": 3861,
      "tanganyika": 3862,
      "chemical": 3863,
      "99": 3864,
      "da": 3865,
      "fif": 3866,
      "ib": 3867,
      "mit": 3868,
      "nai": 3869,
      "tel": 3870,
      "##iers": 3871,
      "##irol": 3872,
      "##kad": 3873,
      "##less": 3874,
      "##coming": 3875,
      "##oned": 3876,
      "##ored": 3877,
      "##ales": 3878,
      "##rec": 3879,
      "##robi": 3880,
      "##oli": 3881,
      "sun": 3882,
      "suc": 3883,
      "never": 3884,
      "exha": 3885,
      "examp": 3886,
      "meal": 3887,
      "enc": 3888,
      "risen": 3889,
      "spok": 3890,
      "spont": 3891,
      "index": 3892,
      "localized": 3893,
      "producing": 3894,
      "basis": 3895,
      "polic": 3896,
      "effect": 3897,
      "black": 3898,
      "##uguri": 3899,
      "##rupted": 3900,
      "##ommun": 3901,
      "contributing": 3902,
      "##afe": 3903,
      "highlands": 3904,
      "claimed": 3905,
      "hazards": 3906,
      "unpre": 3907,
      "jebel": 3908,
      "launched": 3909,
      "integrated": 3910,
      "performance": 3911,
      "sewage": 3912,
      "reconstruction": 3913,
      "ghazal": 3914,
      "maiduguri": 3915,
      "independ": 3916,
      "kapoeta": 3917,
      "nairobi": 3918,
      "example": 3919,
      "spontaneous": 3920,
      "dies": 3921,
      "fell": 3922,
      "kir": 3923,
      "pne": 3924,
      "vect": 3925,
      "wild": 3926,
      "##rid": 3927,
      "##ots": 3928,
      "##si": 3929,
      "##da": 3930,
      "##down": 3931,
      "##falls": 3932,
      "##ining": 3933,
      "inacc": 3934,
      "##ook": 3935,
      "chief": 3936,
      "##imb": 3937,
      "deal": 3938,
      "##ema": 3939,
      "##anded": 3940,
      "abd": 3941,
      "marra": 3942,
      "marawi": 3943,
      "party": 3944,
      "##oded": 3945,
      "##ella": 3946,
      "becoming": 3947,
      "transit": 3948,
      "collection": 3949,
      "burned": 3950,
      "banks": 3951,
      "blood": 3952,
      "vaccines": 3953,
      "vaccinated": 3954,
      "islands": 3955,
      "progress": 3956,
      "potable": 3957,
      "challenging": 3958,
      "fallen": 3959,
      "terror": 3960,
      "shabelle": 3961,
      "demolished": 3962,
      "isolated": 3963,
      "lebanon": 3964,
      "summer": 3965,
      "landmines": 3966,
      "appropriate": 3967,
      "ukrain": 3968,
      "unexpl": 3969,
      "trigger": 3970,
      "ay": 3971,
      "ka": 3972,
      "kg": 3973,
      "mur": 3974,
      "moun": 3975,
      "pest": 3976,
      "sar": 3977,
      "sick": 3978,
      "tro": 3979,
      "tons": 3980,
      "vital": 3981,
      "##kot": 3982,
      "##nt": 3983,
      "##co": 3984,
      "##wood": 3985,
      "##eries": 3986,
      "##itude": 3987,
      "toile": 3988,
      "##eli": 3989,
      "anbar": 3990,
      "mothers": 3991,
      "exch": 3992,
      "##oses": 3993,
      "communal": 3994,
      "consistent": 3995,
      "events": 3996,
      "expensive": 3997,
      "harm": 3998,
      "upcoming": 3999,
      "arrest": 4000,
      "collected": 4001,
      "frequent": 4002,
      "hamm": 4003,
      "##erred": 4004,
      "getting": 4005,
      "sustain": 4006,
      "worsen": 4007,
      "worsened": 4008,
      "standard": 4009,
      "corrid": 4010,
      "keep": 4011,
      "shabaab": 4012,
      "suggest": 4013,
      "unsafe": 4014,
      "intensified": 4015,
      "grave": 4016,
      "forcing": 4017,
      "dangerous": 4018,
      "quantity": 4019,
      "observatory": 4020,
      "sympt": 4021,
      "diesel": 4022,
      "pneumon": 4023,
      "ak": 4024,
      "fs": 4025,
      "les": 4026,
      "lra": 4027,
      "mer": 4028,
      "map": 4029,
      "tas": 4030,
      "tet": 4031,
      "##aa": 4032,
      "##ods": 4033,
      "##har": 4034,
      "##hara": 4035,
      "##ali": 4036,
      "##ises": 4037,
      "asked": 4038,
      "forest": 4039,
      "happ": 4040,
      "##mented": 4041,
      "stands": 4042,
      "##imes": 4043,
      "2011": 4044,
      "resili": 4045,
      "contact": 4046,
      "adj": 4047,
      "##antly": 4048,
      "malawi": 4049,
      "whole": 4050,
      "energ": 4051,
      "countryside": 4052,
      "driver": 4053,
      "weekend": 4054,
      "mayendit": 4055,
      "totally": 4056,
      "upon": 4057,
      "recomm": 4058,
      "produced": 4059,
      "usually": 4060,
      "reception": 4061,
      "170": 4062,
      "requested": 4063,
      "160": 4064,
      "raid": 4065,
      "instead": 4066,
      "seriously": 4067,
      "storms": 4068,
      "representative": 4069,
      "route": 4070,
      "volunt": 4071,
      "separate": 4072,
      "bodies": 4073,
      "streets": 4074,
      "exposure": 4075,
      "djib": 4076,
      "blankets": 4077,
      "discrimination": 4078,
      "melkad": 4079,
      "techn": 4080,
      "repeated": 4081,
      "spokes": 4082,
      "inaccess": 4083,
      "troops": 4084,
      "melkadida": 4085,
      "dign": 4086,
      "gather": 4087,
      "mong": 4088,
      "rent": 4089,
      "slow": 4090,
      "side": 4091,
      "wave": 4092,
      "zimb": 4093,
      "##vation": 4094,
      "##vant": 4095,
      "##ink": 4096,
      "##orable": 4097,
      "##uru": 4098,
      "##tress": 4099,
      "##amat": 4100,
      "haw": 4101,
      "chang": 4102,
      "stations": 4103,
      "disapp": 4104,
      "deg": 4105,
      "##abwe": 4106,
      "pet": 4107,
      "##estation": 4108,
      "exclu": 4109,
      "leer": 4110,
      "wored": 4111,
      "compreh": 4112,
      "##cedented": 4113,
      "195": 4114,
      "detain": 4115,
      "extent": 4116,
      "raised": 4117,
      "raising": 4118,
      "harvesting": 4119,
      "frequently": 4120,
      "##oints": 4121,
      "struck": 4122,
      "growth": 4123,
      "looting": 4124,
      "standards": 4125,
      "firewood": 4126,
      "persistent": 4127,
      "traders": 4128,
      "sugar": 4129,
      "greatest": 4130,
      "speaking": 4131,
      "vehicles": 4132,
      "climate": 4133,
      "anticipated": 4134,
      "unemployment": 4135,
      "secretary": 4136,
      "adamawa": 4137,
      "unprecedented": 4138,
      "zimbabwe": 4139,
      "comprehensive": 4140,
      "boo": 4141,
      "flu": 4142,
      "gamb": 4143,
      "gca": 4144,
      "huge": 4145,
      "join": 4146,
      "light": 4147,
      "lassa": 4148,
      "tar": 4149,
      "ward": 4150,
      "##tch": 4151,
      "##ran": 4152,
      "##otion": 4153,
      "##mally": 4154,
      "ther": 4155,
      "##eded": 4156,
      "##ona": 4157,
      "actions": 4158,
      "alil": 4159,
      "seed": 4160,
      "atyp": 4161,
      "univer": 4162,
      "uncon": 4163,
      "##artoum": 4164,
      "die": 4165,
      "notably": 4166,
      "partner": 4167,
      "##outi": 4168,
      "normally": 4169,
      "crimes": 4170,
      "mete": 4171,
      "amoun": 4172,
      "plac": 4173,
      "percentage": 4174,
      "productive": 4175,
      "responsible": 4176,
      "suspect": 4177,
      "amongst": 4178,
      "##azuj": 4179,
      "options": 4180,
      "smoh": 4181,
      "irreg": 4182,
      "delivered": 4183,
      "afrin": 4184,
      "funds": 4185,
      "preventing": 4186,
      "carry": 4187,
      "khartoum": 4188,
      "immediately": 4189,
      "##where": 4190,
      "highligh": 4191,
      "communicable": 4192,
      "bagh": 4193,
      "vegetables": 4194,
      "abducted": 4195,
      "barriers": 4196,
      "drugs": 4197,
      "tamazuj": 4198,
      "adolescent": 4199,
      "tripoli": 4200,
      "religious": 4201,
      "inhabitants": 4202,
      "arbitrary": 4203,
      "symptoms": 4204,
      "djibouti": 4205,
      "aj": 4206,
      "bore": 4207,
      "band": 4208,
      "cited": 4209,
      "cuts": 4210,
      "din": 4211,
      "gal": 4212,
      "nutr": 4213,
      "om": 4214,
      "paid": 4215,
      "rene": 4216,
      "tu": 4217,
      "um": 4218,
      "##ye": 4219,
      "##sion": 4220,
      "##ple": 4221,
      "##ws": 4222,
      "##ormed": 4223,
      "##verse": 4224,
      "##stand": 4225,
      "##ula": 4226,
      "ste": 4227,
      "resol": 4228,
      "peru": 4229,
      "uninh": 4230,
      "admission": 4231,
      "##ansk": 4232,
      "##angu": 4233,
      "militia": 4234,
      "##grad": 4235,
      "harvested": 4236,
      "activity": 4237,
      "reproduc": 4238,
      "patient": 4239,
      "crossed": 4240,
      "pointed": 4241,
      "disruptions": 4242,
      "fatalities": 4243,
      "requirements": 4244,
      "potentially": 4245,
      "cargo": 4246,
      "justice": 4247,
      "occurring": 4248,
      "cultural": 4249,
      "documentation": 4250,
      "females": 4251,
      "traditional": 4252,
      "relocation": 4253,
      "implementation": 4254,
      "southeast": 4255,
      "isolation": 4256,
      "attempting": 4257,
      "skin": 4258,
      "doubled": 4259,
      "jobs": 4260,
      "namely": 4261,
      "administrative": 4262,
      "epidemiological": 4263,
      "morbidity": 4264,
      "maternal": 4265,
      "vector": 4266,
      "energy": 4267,
      "irregular": 4268,
      "renew": 4269,
      "06": 4270,
      "07": 4271,
      "base": 4272,
      "eat": 4273,
      "hh": 4274,
      "ni": 4275,
      "none": 4276,
      "pat": 4277,
      "squ": 4278,
      "sene": 4279,
      "yields": 4280,
      "##tm": 4281,
      "##ogr": 4282,
      "##nessed": 4283,
      "##water": 4284,
      "##fa": 4285,
      "##ony": 4286,
      "##oot": 4287,
      "beans": 4288,
      "convo": 4289,
      "haiti": 4290,
      "isf": 4291,
      "##eline": 4292,
      "ali": 4293,
      "heating": 4294,
      "resear": 4295,
      "perpe": 4296,
      "##ifying": 4297,
      "pokot": 4298,
      "infect": 4299,
      "amhara": 4300,
      "##elled": 4301,
      "phases": 4302,
      "emergencies": 4303,
      "maintain": 4304,
      "appeal": 4305,
      "prevail": 4306,
      "fran": 4307,
      "frag": 4308,
      "quick": 4309,
      "##ogy": 4310,
      "organisation": 4311,
      "turn": 4312,
      "starting": 4313,
      "structural": 4314,
      "campaigns": 4315,
      "##abitable": 4316,
      "snow": 4317,
      "clothing": 4318,
      "witnessed": 4319,
      "benefici": 4320,
      "allegedly": 4321,
      "pumping": 4322,
      "devastating": 4323,
      "checkpoints": 4324,
      "kilometers": 4325,
      "colombia": 4326,
      "herders": 4327,
      "alternative": 4328,
      "crowded": 4329,
      "unexploded": 4330,
      "degre": 4331,
      "uninhabitable": 4332,
      "perpetr": 4333,
      "bath": 4334,
      "dh": 4335,
      "fill": 4336,
      "give": 4337,
      "gang": 4338,
      "kaj": 4339,
      "lines": 4340,
      "lakes": 4341,
      "por": 4342,
      "pun": 4343,
      "##ui": 4344,
      "##tained": 4345,
      "##mad": 4346,
      "##inc": 4347,
      "prospec": 4348,
      "##umps": 4349,
      "heat": 4350,
      "exit": 4351,
      "accused": 4352,
      "unr": 4353,
      "prone": 4354,
      "predic": 4355,
      "##istence": 4356,
      "marr": 4357,
      "##ode": 4358,
      "compound": 4359,
      "company": 4360,
      "harsh": 4361,
      "lik": 4362,
      "##teen": 4363,
      "paral": 4364,
      "limiting": 4365,
      "setting": 4366,
      "subse": 4367,
      "officially": 4368,
      "130": 4369,
      "fru": 4370,
      "injury": 4371,
      "final": 4372,
      "green": 4373,
      "classes": 4374,
      "survive": 4375,
      "project": 4376,
      "exception": 4377,
      "representing": 4378,
      "volat": 4379,
      "commonly": 4380,
      "snn": 4381,
      "bullet": 4382,
      "ahead": 4383,
      "businesses": 4384,
      "precip": 4385,
      "##addy": 4386,
      "weapons": 4387,
      "society": 4388,
      "suicide": 4389,
      "exchange": 4390,
      "hammam": 4391,
      "quickly": 4392,
      "prospects": 4393,
      "94": 4394,
      "dw": 4395,
      "fil": 4396,
      "mis": 4397,
      "might": 4398,
      "magn": 4399,
      "pin": 4400,
      "rul": 4401,
      "ts": 4402,
      "##tu": 4403,
      "##ih": 4404,
      "##iya": 4405,
      "##oon": 4406,
      "##itary": 4407,
      "##enty": 4408,
      "rebu": 4409,
      "##iga": 4410,
      "##uty": 4411,
      "chan": 4412,
      "##unte": 4413,
      "comes": 4414,
      "resident": 4415,
      "perman": 4416,
      "leg": 4417,
      "adding": 4418,
      "decided": 4419,
      "informed": 4420,
      "##ellite": 4421,
      "##tured": 4422,
      "weekly": 4423,
      "localities": 4424,
      "mines": 4425,
      "estimate": 4426,
      "##orms": 4427,
      "vulnerabilities": 4428,
      "providers": 4429,
      "extended": 4430,
      "threatened": 4431,
      "developed": 4432,
      "salaries": 4433,
      "distributions": 4434,
      "volunte": 4435,
      "satellite": 4436,
      "cooper": 4437,
      "presented": 4438,
      "practice": 4439,
      "implemented": 4440,
      "residential": 4441,
      "curren": 4442,
      "bridge": 4443,
      "impacting": 4444,
      "reserves": 4445,
      "accommodation": 4446,
      "roofs": 4447,
      "##golese": 4448,
      "advocacy": 4449,
      "piura": 4450,
      "criminal": 4451,
      "desperate": 4452,
      "resilience": 4453,
      "disappear": 4454,
      "woredas": 4455,
      "senegal": 4456,
      "research": 4457,
      "infectious": 4458,
      "categ": 4459,
      "calls": 4460,
      "him": 4461,
      "khan": 4462,
      "mart": 4463,
      "sir": 4464,
      "##bs": 4465,
      "##sa": 4466,
      "##eh": 4467,
      "##duce": 4468,
      "##enous": 4469,
      "##ently": 4470,
      "##oul": 4471,
      "##ured": 4472,
      "conclu": 4473,
      "congolese": 4474,
      "sets": 4475,
      "disabilities": 4476,
      "##ima": 4477,
      "##uno": 4478,
      "predom": 4479,
      "##acks": 4480,
      "idl": 4481,
      "flows": 4482,
      "location": 4483,
      "compar": 4484,
      "offensive": 4485,
      "indus": 4486,
      "protest": 4487,
      "##azi": 4488,
      "##certain": 4489,
      "lowest": 4490,
      "180": 4491,
      "supplement": 4492,
      "endemic": 4493,
      "fresh": 4494,
      "effective": 4495,
      "intake": 4496,
      "##rowing": 4497,
      "smart": 4498,
      "nigerian": 4499,
      "solid": 4500,
      "##mined": 4501,
      "extrem": 4502,
      "prevented": 4503,
      "personal": 4504,
      "cereals": 4505,
      "epidemics": 4506,
      "projects": 4507,
      "contribute": 4508,
      "restore": 4509,
      "eviction": 4510,
      "networks": 4511,
      "retail": 4512,
      "referred": 4513,
      "blocked": 4514,
      "communication": 4515,
      "##voir": 4516,
      "subsistence": 4517,
      "kabul": 4518,
      "coupled": 4519,
      "church": 4520,
      "##tivity": 4521,
      "substantial": 4522,
      "detainees": 4523,
      "reproductive": 4524,
      "currency": 4525,
      "predomin": 4526,
      "dfs": 4527,
      "eb": 4528,
      "eas": 4529,
      "fert": 4530,
      "hin": 4531,
      "hus": 4532,
      "kass": 4533,
      "sens": 4534,
      "vari": 4535,
      "wound": 4536,
      "##ii": 4537,
      "##ipped": 4538,
      "##rd": 4539,
      "##ways": 4540,
      "induc": 4541,
      "##oration": 4542,
      "##icial": 4543,
      "repl": 4544,
      "##igate": 4545,
      "##ellow": 4546,
      "##ills": 4547,
      "shown": 4548,
      "shocks": 4549,
      "union": 4550,
      "unav": 4551,
      "outages": 4552,
      "metric": 4553,
      "meters": 4554,
      "decades": 4555,
      "##raw": 4556,
      "plans": 4557,
      "empt": 4558,
      "employ": 4559,
      "millions": 4560,
      "phili": 4561,
      "##aves": 4562,
      "sheltering": 4563,
      "lacking": 4564,
      "else": 4565,
      "declining": 4566,
      "detected": 4567,
      "collect": 4568,
      "220": 4569,
      "migrant": 4570,
      "obst": 4571,
      "experts": 4572,
      "infrastructur": 4573,
      "solutions": 4574,
      "classification": 4575,
      "daraa": 4576,
      "airport": 4577,
      "purp": 4578,
      "sales": 4579,
      "leaves": 4580,
      "fears": 4581,
      "visit": 4582,
      "ngca": 4583,
      "committed": 4584,
      "tanks": 4585,
      "occupation": 4586,
      "moham": 4587,
      "escalation": 4588,
      "breeding": 4589,
      "reservoir": 4590,
      "dominican": 4591,
      "rwanda": 4592,
      "division": 4593,
      "nurses": 4594,
      "federal": 4595,
      "mountain": 4596,
      "inaccessible": 4597,
      "university": 4598,
      "renewed": 4599,
      "beneficiaries": 4600,
      "magnitude": 4601,
      "rebuild": 4602,
      "unavail": 4603,
      "philipp": 4604,
      "03": 4605,
      "cust": 4606,
      "fod": 4607,
      "homs": 4608,
      "joh": 4609,
      "ker": 4610,
      "luh": 4611,
      "mam": 4612,
      "pap": 4613,
      "stric": 4614,
      "##yo": 4615,
      "##lor": 4616,
      "##face": 4617,
      "##aling": 4618,
      "tool": 4619,
      "##rof": 4620,
      "reop": 4621,
      "replac": 4622,
      "##thew": 4623,
      "##stitution": 4624,
      "stabil": 4625,
      "share": 4626,
      "exec": 4627,
      "outl": 4628,
      "diagn": 4629,
      "##izing": 4630,
      "flow": 4631,
      "maxim": 4632,
      "situ": 4633,
      "strikes": 4634,
      "pharm": 4635,
      "compan": 4636,
      "recurrent": 4637,
      "elections": 4638,
      "conflicts": 4639,
      "desert": 4640,
      "internal": 4641,
      "timely": 4642,
      "institute": 4643,
      "salah": 4644,
      "litres": 4645,
      "considering": 4646,
      "strategy": 4647,
      "matthew": 4648,
      "younger": 4649,
      "typh": 4650,
      "value": 4651,
      "engage": 4652,
      "mechanism": 4653,
      "applications": 4654,
      "relying": 4655,
      "behav": 4656,
      "sharply": 4657,
      "witness": 4658,
      "venezuela": 4659,
      "waiting": 4660,
      "distances": 4661,
      "ready": 4662,
      "success": 4663,
      "voluntary": 4664,
      "bulletin": 4665,
      "idlib": 4666,
      "fodder": 4667,
      "luhansk": 4668,
      "fas": 4669,
      "fash": 4670,
      "foot": 4671,
      "ge": 4672,
      "jam": 4673,
      "koch": 4674,
      "mixed": 4675,
      "pany": 4676,
      "wood": 4677,
      "yirol": 4678,
      "##lands": 4679,
      "##merg": 4680,
      "##her": 4681,
      "##flow": 4682,
      "##fire": 4683,
      "##itative": 4684,
      "##aly": 4685,
      "##anji": 4686,
      "##reated": 4687,
      "##outs": 4688,
      "##ola": 4689,
      "##old": 4690,
      "forage": 4691,
      "semi": 4692,
      "##adir": 4693,
      "reset": 4694,
      "shared": 4695,
      "##iance": 4696,
      "##lus": 4697,
      "arid": 4698,
      "agrop": 4699,
      "##enced": 4700,
      "infestation": 4701,
      "entry": 4702,
      "strain": 4703,
      "arrests": 4704,
      "boy": 4705,
      "hosted": 4706,
      "concerning": 4707,
      "112": 4708,
      "sof": 4709,
      "##gry": 4710,
      "fired": 4711,
      "delays": 4712,
      "verification": 4713,
      "position": 4714,
      "##ikh": 4715,
      "washed": 4716,
      "ifrc": 4717,
      "##minent": 4718,
      "teacher": 4719,
      "##resp": 4720,
      "study": 4721,
      "erratic": 4722,
      "owners": 4723,
      "journey": 4724,
      "devices": 4725,
      "combination": 4726,
      "landslide": 4727,
      "alleg": 4728,
      "created": 4729,
      "vegetable": 4730,
      "graz": 4731,
      "trucking": 4732,
      "northwestern": 4733,
      "double": 4734,
      "subsid": 4735,
      "testing": 4736,
      "accept": 4737,
      "rescue": 4738,
      "township": 4739,
      "swept": 4740,
      "assault": 4741,
      "details": 4742,
      "sahel": 4743,
      "abandoned": 4744,
      "resorting": 4745,
      "ukraine": 4746,
      "technical": 4747,
      "highlighted": 4748,
      "duk": 4749,
      "duma": 4750,
      "dtm": 4751,
      "eup": 4752,
      "kan": 4753,
      "lot": 4754,
      "nar": 4755,
      "path": 4756,
      "pub": 4757,
      "paddy": 4758,
      "rd": 4759,
      "ration": 4760,
      "rough": 4761,
      "sin": 4762,
      "warr": 4763,
      "##bed": 4764,
      "##km": 4765,
      "##oted": 4766,
      "##oke": 4767,
      "##pa": 4768,
      "##de": 4769,
      "##itable": 4770,
      "##anana": 4771,
      "##cept": 4772,
      "proxim": 4773,
      "produce": 4774,
      "compr": 4775,
      "anse": 4776,
      "perce": 4777,
      "unm": 4778,
      "affects": 4779,
      "schem": 4780,
      "pose": 4781,
      "nord": 4782,
      "males": 4783,
      "insurg": 4784,
      "encl": 4785,
      "plants": 4786,
      "##oda": 4787,
      "underg": 4788,
      "mainten": 4789,
      "##aha": 4790,
      "design": 4791,
      "repairs": 4792,
      "generators": 4793,
      "grad": 4794,
      "raped": 4795,
      "decreasing": 4796,
      "showing": 4797,
      "yemeni": 4798,
      "disrupting": 4799,
      "untreated": 4800,
      "properties": 4801,
      "visits": 4802,
      "monitored": 4803,
      "hungry": 4804,
      "##rupt": 4805,
      "evicted": 4806,
      "savings": 4807,
      "depletion": 4808,
      "blockade": 4809,
      "forcibly": 4810,
      "hazard": 4811,
      "nationwide": 4812,
      "heightened": 4813,
      "precarious": 4814,
      "transfer": 4815,
      "participants": 4816,
      "cultivation": 4817,
      "illnesses": 4818,
      "belongings": 4819,
      "update": 4820,
      "hampered": 4821,
      "etc": 4822,
      "spring": 4823,
      "##hrates": 4824,
      "discussions": 4825,
      "catastrophe": 4826,
      "nutrit": 4827,
      "fertil": 4828,
      "induced": 4829,
      "euphrates": 4830,
      "publ": 4831,
      "proximity": 4832,
      "09": 4833,
      "dad": 4834,
      "dimin": 4835,
      "hot": 4836,
      "mb": 4837,
      "mop": 4838,
      "ow": 4839,
      "opt": 4840,
      "pn": 4841,
      "sie": 4842,
      "yellow": 4843,
      "zero": 4844,
      "##ient": 4845,
      "##kir": 4846,
      "##la": 4847,
      "##mb": 4848,
      "##vised": 4849,
      "##asts": 4850,
      "##isations": 4851,
      "##ilst": 4852,
      "##lying": 4853,
      "##acent": 4854,
      "haj": 4855,
      "proced": 4856,
      "prostitution": 4857,
      "##aying": 4858,
      "complications": 4859,
      "antal": 4860,
      "##astic": 4861,
      "##astoral": 4862,
      "##ourable": 4863,
      "marked": 4864,
      "##onga": 4865,
      "add": 4866,
      "overflow": 4867,
      "cred": 4868,
      "maur": 4869,
      "meant": 4870,
      "fees": 4871,
      "afar": 4872,
      "countrywide": 4873,
      "spike": 4874,
      "alloc": 4875,
      "##ishing": 4876,
      "##enses": 4877,
      "scor": 4878,
      "request": 4879,
      "frien": 4880,
      "turned": 4881,
      "identification": 4882,
      "teaching": 4883,
      "conduct": 4884,
      "ensuring": 4885,
      "analanji": 4886,
      "anti": 4887,
      "cutting": 4888,
      "typical": 4889,
      "waters": 4890,
      "release": 4891,
      "character": 4892,
      "enrolled": 4893,
      "ordn": 4894,
      "vehicle": 4895,
      "dollo": 4896,
      "circum": 4897,
      "senior": 4898,
      "kurdish": 4899,
      "facilitate": 4900,
      "aggravated": 4901,
      "toilets": 4902,
      "corridor": 4903,
      "adjacent": 4904,
      "dignity": 4905,
      "monguno": 4906,
      "therape": 4907,
      "##ograp": 4908,
      "volatile": 4909,
      "permanent": 4910,
      "##rofo": 4911,
      "agropastoral": 4912,
      "nutritious": 4913,
      "friends": 4914,
      "analanjirofo": 4915,
      "04": 4916,
      "02": 4917,
      "ats": 4918,
      "aim": 4919,
      "dre": 4920,
      "ec": 4921,
      "eating": 4922,
      "horr": 4923,
      "jail": 4924,
      "mag": 4925,
      "mine": 4926,
      "pup": 4927,
      "pests": 4928,
      "secure": 4929,
      "tub": 4930,
      "##umented": 4931,
      "##iji": 4932,
      "##sive": 4933,
      "##xic": 4934,
      "##pers": 4935,
      "##mine": 4936,
      "##hib": 4937,
      "##ena": 4938,
      "##alan": 4939,
      "##along": 4940,
      "##ingo": 4941,
      "##roc": 4942,
      "##iland": 4943,
      "##ament": 4944,
      "##utic": 4945,
      "acres": 4946,
      "stead": 4947,
      "dism": 4948,
      "##ocumented": 4949,
      "reside": 4950,
      "##agic": 4951,
      "##ghazi": 4952,
      "track": 4953,
      "series": 4954,
      "impos": 4955,
      "##rah": 4956,
      "comprom": 4957,
      "##aving": 4958,
      "drain": 4959,
      "undocumented": 4960,
      "hards": 4961,
      "crises": 4962,
      "persec": 4963,
      "returnee": 4964,
      "rob": 4965,
      "role": 4966,
      "deprec": 4967,
      "scen": 4968,
      "##upalong": 4969,
      "175": 4970,
      "140": 4971,
      "submerg": 4972,
      "officer": 4973,
      "verified": 4974,
      "traum": 4975,
      "burning": 4976,
      "burden": 4977,
      "banadir": 4978,
      "organisations": 4979,
      "girl": 4980,
      "guine": 4981,
      "fewer": 4982,
      "lifes": 4983,
      "defec": 4984,
      "sold": 4985,
      "funded": 4986,
      "outskir": 4987,
      "coordinated": 4988,
      "afghans": 4989,
      "balad": 4990,
      "involving": 4991,
      "promotion": 4992,
      "bakeries": 4993,
      "trucks": 4994,
      "twenty": 4995,
      "smugglers": 4996,
      "benghazi": 4997,
      "worrying": 4998,
      "southwestern": 4999,
      "concentrated": 5000,
      "ranging": 5001,
      "kutupalong": 5002,
      "##ivalent": 5003,
      "##elihood": 5004,
      "task": 5005,
      "gathered": 5006,
      "likelihood": 5007,
      "precipitation": 5008,
      "volunteers": 5009,
      "predominantly": 5010,
      "maintenance": 5011,
      "fertiliz": 5012,
      "dadaab": 5013,
      "siege": 5014,
      "therapeutic": 5015,
      "submerged": 5016,
      "bud": 5017,
      "coc": 5018,
      "kin": 5019,
      "list": 5020,
      "oce": 5021,
      "pumps": 5022,
      "sg": 5023,
      "spor": 5024,
      "till": 5025,
      "ups": 5026,
      "##rist": 5027,
      "##gd": 5028,
      "thar": 5029,
      "##ering": 5030,
      "##erial": 5031,
      "##enom": 5032,
      "##atal": 5033,
      "##iscr": 5034,
      "beat": 5035,
      "##ami": 5036,
      "##uto": 5037,
      "##elf": 5038,
      "nets": 5039,
      "stig": 5040,
      "withd": 5041,
      "shops": 5042,
      "excess": 5043,
      "accompanied": 5044,
      "nothing": 5045,
      "##ifi": 5046,
      "count": 5047,
      "##usted": 5048,
      "##ongo": 5049,
      "adults": 5050,
      "try": 5051,
      "dik": 5052,
      "##allah": 5053,
      "ituri": 5054,
      "worth": 5055,
      "severity": 5056,
      "amer": 5057,
      "populated": 5058,
      "##arely": 5059,
      "indiscr": 5060,
      "locals": 5061,
      "productivity": 5062,
      "board": 5063,
      "boats": 5064,
      "deputy": 5065,
      "usual": 5066,
      "110": 5067,
      "114": 5068,
      "destroying": 5069,
      "improvised": 5070,
      "quest": 5071,
      "burnt": 5072,
      "##bane": 5073,
      "leader": 5074,
      "##aij": 5075,
      "##ruption": 5076,
      "identify": 5077,
      "functionality": 5078,
      "##anao": 5079,
      "install": 5080,
      "register": 5081,
      "starvation": 5082,
      "difficulty": 5083,
      "makes": 5084,
      "deliveries": 5085,
      "##oko": 5086,
      "##erbaij": 5087,
      "escape": 5088,
      "whether": 5089,
      "850": 5090,
      "specialized": 5091,
      "inpatient": 5092,
      "armyworms": 5093,
      "##orrh": 5094,
      "entering": 5095,
      "battle": 5096,
      "azerbaij": 5097,
      "transferred": 5098,
      "smuggling": 5099,
      "checkpoint": 5100,
      "preparing": 5101,
      "kidnapped": 5102,
      "favorable": 5103,
      "hope": 5104,
      "subjected": 5105,
      "begun": 5106,
      "confiscated": 5107,
      "believed": 5108,
      "preparedness": 5109,
      "mitigate": 5110,
      "bathing": 5111,
      "tools": 5112,
      "allegations": 5113,
      "lifesaving": 5114,
      "outskirts": 5115,
      "ocean": 5116,
      "awe": 5117,
      "cab": 5118,
      "core": 5119,
      "ere": 5120,
      "erupted": 5121,
      "hour": 5122,
      "kw": 5123,
      "kore": 5124,
      "rav": 5125,
      "tun": 5126,
      "tah": 5127,
      "torn": 5128,
      "uasc": 5129,
      "ves": 5130,
      "wage": 5131,
      "ware": 5132,
      "##iema": 5133,
      "##pted": 5134,
      "##een": 5135,
      "##gu": 5136,
      "##jar": 5137,
      "##itic": 5138,
      "##asted": 5139,
      "##lets": 5140,
      "##ambane": 5141,
      "##igenous": 5142,
      "cho": 5143,
      "chik": 5144,
      "christ": 5145,
      "stage": 5146,
      "##ivka": 5147,
      "##abe": 5148,
      "##ighting": 5149,
      "let": 5150,
      "unfp": 5151,
      "uncertain": 5152,
      "oral": 5153,
      "notified": 5154,
      "partial": 5155,
      "maniema": 5156,
      "flo": 5157,
      "crime": 5158,
      "fetch": 5159,
      "entered": 5160,
      "##spap": 5161,
      "##liament": 5162,
      "spending": 5163,
      "newspap": 5164,
      "indigenous": 5165,
      "underway": 5166,
      "surger": 5167,
      "protests": 5168,
      "election": 5169,
      "responding": 5170,
      "parliament": 5171,
      "##tlement": 5172,
      "marketing": 5173,
      "signs": 5174,
      "fourth": 5175,
      "brings": 5176,
      "raf": 5177,
      "##obo": 5178,
      "intim": 5179,
      "intention": 5180,
      "sectoral": 5181,
      "goats": 5182,
      "solar": 5183,
      "earning": 5184,
      "equivalent": 5185,
      "260": 5186,
      "2009": 5187,
      "negl": 5188,
      "covered": 5189,
      "requires": 5190,
      "ninewa": 5191,
      "360": 5192,
      "analy": 5193,
      "calling": 5194,
      "baringo": 5195,
      "type": 5196,
      "engaged": 5197,
      "baloch": 5198,
      "appl": 5199,
      "inhambane": 5200,
      "750": 5201,
      "screened": 5202,
      "resume": 5203,
      "sabha": 5204,
      "review": 5205,
      "strengthening": 5206,
      "donets": 5207,
      "gedo": 5208,
      "complained": 5209,
      "stunting": 5210,
      "triggered": 5211,
      "ayod": 5212,
      "fsn": 5213,
      "fragile": 5214,
      "channel": 5215,
      "concluded": 5216,
      "elsewhere": 5217,
      "purposes": 5218,
      "outlook": 5219,
      "published": 5220,
      "antalaha": 5221,
      "maurit": 5222,
      "indiscrimin": 5223,
      "##orrhagic": 5224,
      "aweil": 5225,
      "wareh": 5226,
      "unfpa": 5227,
      "ba": 5228,
      "bos": 5229,
      "bure": 5230,
      "cv": 5231,
      "drough": 5232,
      "fa": 5233,
      "jub": 5234,
      "ki": 5235,
      "kad": 5236,
      "kuk": 5237,
      "momb": 5238,
      "ou": 5239,
      "rather": 5240,
      "wadi": 5241,
      "##bo": 5242,
      "##val": 5243,
      "##inations": 5244,
      "##ario": 5245,
      "##urge": 5246,
      "##action": 5247,
      "##amo": 5248,
      "haut": 5249,
      "ones": 5250,
      "why": 5251,
      "chain": 5252,
      "chlor": 5253,
      "##ayo": 5254,
      "##una": 5255,
      "resort": 5256,
      "shif": 5257,
      "permit": 5258,
      "regard": 5259,
      "##antan": 5260,
      "##izi": 5261,
      "##izes": 5262,
      "mang": 5263,
      "enable": 5264,
      "amran": 5265,
      "compens": 5266,
      "expans": 5267,
      "##aref": 5268,
      "india": 5269,
      "##aught": 5270,
      "basket": 5271,
      "shortfalls": 5272,
      "approved": 5273,
      "hosts": 5274,
      "supplied": 5275,
      "hela": 5276,
      "bordering": 5277,
      "generation": 5278,
      "generating": 5279,
      "240": 5280,
      "grains": 5281,
      "targets": 5282,
      "instance": 5283,
      "socio": 5284,
      "covering": 5285,
      "potato": 5286,
      "programs": 5287,
      "older": 5288,
      "ordered": 5289,
      "350": 5290,
      "everything": 5291,
      "330": 5292,
      "considerable": 5293,
      "450": 5294,
      "owned": 5295,
      "dryness": 5296,
      "separation": 5297,
      "standing": 5298,
      "corresp": 5299,
      "engagement": 5300,
      "cumulatively": 5301,
      "dispos": 5302,
      "territories": 5303,
      "##forced": 5304,
      "outpatient": 5305,
      "consumed": 5306,
      "bakool": 5307,
      "danger": 5308,
      "strengthen": 5309,
      "taiz": 5310,
      "lebanese": 5311,
      "settlers": 5312,
      "gunmen": 5313,
      "accounts": 5314,
      "southwest": 5315,
      "tribal": 5316,
      "demonstrations": 5317,
      "independent": 5318,
      "tete": 5319,
      "recommended": 5320,
      "francs": 5321,
      "extremist": 5322,
      "empty": 5323,
      "employees": 5324,
      "infrastructures": 5325,
      "maximum": 5326,
      "behavi": 5327,
      "ordnance": 5328,
      "drainage": 5329,
      "persecution": 5330,
      "guinea": 5331,
      "droughts": 5332,
      "kukawa": 5333,
      "aut": 5334,
      "citing": 5335,
      "hiv": 5336,
      "kam": 5337,
      "langu": 5338,
      "mom": 5339,
      "na": 5340,
      "pan": 5341,
      "punt": 5342,
      "que": 5343,
      "ri": 5344,
      "sil": 5345,
      "##ole": 5346,
      "##mat": 5347,
      "##ming": 5348,
      "##cing": 5349,
      "##commun": 5350,
      "##dad": 5351,
      "##human": 5352,
      "##ites": 5353,
      "##aration": 5354,
      "##ouk": 5355,
      "che": 5356,
      "china": 5357,
      "seized": 5358,
      "deport": 5359,
      "##ching": 5360,
      "##illery": 5361,
      "resist": 5362,
      "exerc": 5363,
      "##osis": 5364,
      "affil": 5365,
      "sava": 5366,
      "assisted": 5367,
      "command": 5368,
      "adverse": 5369,
      "tried": 5370,
      "displacing": 5371,
      "##holes": 5372,
      "flight": 5373,
      "meat": 5374,
      "governments": 5375,
      "dams": 5376,
      "stranded": 5377,
      "cropping": 5378,
      "phenom": 5379,
      "driving": 5380,
      "surface": 5381,
      "108": 5382,
      "persists": 5383,
      "boat": 5384,
      "##tructed": 5385,
      "avalan": 5386,
      "intercommun": 5387,
      "opening": 5388,
      "farmland": 5389,
      "199": 5390,
      "declaration": 5391,
      "burk": 5392,
      "obl": 5393,
      "blue": 5394,
      "organized": 5395,
      "epi": 5396,
      "herds": 5397,
      "falling": 5398,
      "sheikh": 5399,
      "restored": 5400,
      "thirds": 5401,
      "municipal": 5402,
      "culture": 5403,
      "types": 5404,
      "privacy": 5405,
      "establishment": 5406,
      "garb": 5407,
      "larger": 5408,
      "##ungun": 5409,
      "addressed": 5410,
      "interviews": 5411,
      "broken": 5412,
      "tonj": 5413,
      "passage": 5414,
      "peaceke": 5415,
      "peaceful": 5416,
      "sabr": 5417,
      "viet": 5418,
      "walk": 5419,
      "borrowing": 5420,
      "acceler": 5421,
      "rubb": 5422,
      "rann": 5423,
      "distance": 5424,
      "muslims": 5425,
      "gedaref": 5426,
      "pulses": 5427,
      "kilometres": 5428,
      "possibility": 5429,
      "circul": 5430,
      "townships": 5431,
      "sleeping": 5432,
      "neighborhoods": 5433,
      "histor": 5434,
      "artillery": 5435,
      "harmon": 5436,
      "drivers": 5437,
      "spokesman": 5438,
      "meteor": 5439,
      "boreholes": 5440,
      "procedures": 5441,
      "pupils": 5442,
      "scenario": 5443,
      "sgbv": 5444,
      "dikwa": 5445,
      "balochistan": 5446,
      "aqu": 5447,
      "bid": 5448,
      "bik": 5449,
      "cad": 5450,
      "dial": 5451,
      "ero": 5452,
      "ku": 5453,
      "kib": 5454,
      "ll": 5455,
      "nom": 5456,
      "pm": 5457,
      "pack": 5458,
      "ports": 5459,
      "pending": 5460,
      "render": 5461,
      "size": 5462,
      "tari": 5463,
      "torr": 5464,
      "wr": 5465,
      "##tin": 5466,
      "##gen": 5467,
      "##wer": 5468,
      "##fed": 5469,
      "##escent": 5470,
      "##enon": 5471,
      "##iter": 5472,
      "##icop": 5473,
      "##road": 5474,
      "##the": 5475,
      "##theless": 5476,
      "##idi": 5477,
      "##idation": 5478,
      "conc": 5479,
      "acts": 5480,
      "prop": 5481,
      "degrad": 5482,
      "hebr": 5483,
      "##plan": 5484,
      "export": 5485,
      "levant": 5486,
      "hass": 5487,
      "unc": 5488,
      "##ifically": 5489,
      "adop": 5490,
      "##quately": 5491,
      "overwh": 5492,
      "crescent": 5493,
      "max": 5494,
      "maung": 5495,
      "##weyn": 5496,
      "dramat": 5497,
      "indian": 5498,
      "responses": 5499,
      "suspension": 5500,
      "128": 5501,
      "follows": 5502,
      "115": 5503,
      "militias": 5504,
      "transition": 5505,
      "doing": 5506,
      "162": 5507,
      "landfall": 5508,
      "somaliland": 5509,
      "helicop": 5510,
      "borderline": 5511,
      "finally": 5512,
      "occas": 5513,
      "##ondur": 5514,
      "goat": 5515,
      "electr": 5516,
      "complement": 5517,
      "##ield": 5518,
      "developments": 5519,
      "capacities": 5520,
      "preventable": 5521,
      "specifically": 5522,
      "annex": 5523,
      "pressing": 5524,
      "purchases": 5525,
      "latrine": 5526,
      "statistics": 5527,
      "matter": 5528,
      "typically": 5529,
      "initi": 5530,
      "nature": 5531,
      "consequently": 5532,
      "bombard": 5533,
      "doctor": 5534,
      "course": 5535,
      "consuming": 5536,
      "eritreans": 5537,
      "struggle": 5538,
      "attempts": 5539,
      "pipeline": 5540,
      "orders": 5541,
      "tax": 5542,
      "appears": 5543,
      "clearance": 5544,
      "european": 5545,
      "mmc": 5546,
      "prisoners": 5547,
      "sdf": 5548,
      "undertaken": 5549,
      "confirmation": 5550,
      "lamu": 5551,
      "exhausted": 5552,
      "policy": 5553,
      "raids": 5554,
      "degrees": 5555,
      "fruit": 5556,
      "snnp": 5557,
      "replen": 5558,
      "resettlement": 5559,
      "characterized": 5560,
      "depreciation": 5561,
      "chikungun": 5562,
      "expansion": 5563,
      "puntland": 5564,
      "phenomenon": 5565,
      "bikoro": 5566,
      "torrential": 5567,
      "hebron": 5568,
      "overwhel": 5569,
      "dramatically": 5570,
      "chikungunya": 5571,
      "bi": 5572,
      "dau": 5573,
      "gren": 5574,
      "got": 5575,
      "hir": 5576,
      "jar": 5577,
      "rift": 5578,
      "sad": 5579,
      "tell": 5580,
      "vd": 5581,
      "##tor": 5582,
      "##tched": 5583,
      "##bon": 5584,
      "##yi": 5585,
      "##nants": 5586,
      "##gested": 5587,
      "##cc": 5588,
      "things": 5589,
      "##inanana": 5590,
      "inability": 5591,
      "##ories": 5592,
      "##ords": 5593,
      "##iced": 5594,
      "##oud": 5595,
      "bearing": 5596,
      "ash": 5597,
      "##ology": 5598,
      "onwards": 5599,
      "##ull": 5600,
      "##porters": 5601,
      "charge": 5602,
      "prohib": 5603,
      "distress": 5604,
      "disrupt": 5605,
      "##umu": 5606,
      "##aye": 5607,
      "noting": 5608,
      "houth": 5609,
      "abroad": 5610,
      "ages": 5611,
      "agro": 5612,
      "partly": 5613,
      "remnants": 5614,
      "enhan": 5615,
      "##enders": 5616,
      "expect": 5617,
      "expenses": 5618,
      "attending": 5619,
      "inde": 5620,
      "relations": 5621,
      "155": 5622,
      "appar": 5623,
      "respons": 5624,
      "responded": 5625,
      "attackers": 5626,
      "basin": 5627,
      "117": 5628,
      "transhuman": 5629,
      "requests": 5630,
      "soap": 5631,
      "activated": 5632,
      "activist": 5633,
      "165": 5634,
      "provides": 5635,
      "fires": 5636,
      "firing": 5637,
      "periods": 5638,
      "declines": 5639,
      "brut": 5640,
      "burm": 5641,
      "indicators": 5642,
      "banned": 5643,
      "safely": 5644,
      "230": 5645,
      "##bank": 5646,
      "guards": 5647,
      "pastoralist": 5648,
      "muh": 5649,
      "defense": 5650,
      "thousand": 5651,
      "##ombe": 5652,
      "##identified": 5653,
      "ethiopian": 5654,
      "liters": 5655,
      "tank": 5656,
      "sharing": 5657,
      "travelling": 5658,
      "tension": 5659,
      "mosques": 5660,
      "swiss": 5661,
      "escalated": 5662,
      "besides": 5663,
      "burundian": 5664,
      "reflects": 5665,
      "enrolment": 5666,
      "rubella": 5667,
      "complain": 5668,
      "biggest": 5669,
      "torit": 5670,
      "history": 5671,
      "kitch": 5672,
      "admissions": 5673,
      "pattern": 5674,
      "square": 5675,
      "convoys": 5676,
      "hinder": 5677,
      "unavailable": 5678,
      "companies": 5679,
      "grazing": 5680,
      "atsinanana": 5681,
      "upsurge": 5682,
      "rafah": 5683,
      "donetsk": 5684,
      "fsnau": 5685,
      "mauritania": 5686,
      "mombasa": 5687,
      "ct": 5688,
      "du": 5689,
      "dying": 5690,
      "hr": 5691,
      "hode": 5692,
      "icr": 5693,
      "jere": 5694,
      "jud": 5695,
      "lu": 5696,
      "mort": 5697,
      "nrc": 5698,
      "pen": 5699,
      "rati": 5700,
      "send": 5701,
      "sides": 5702,
      "tear": 5703,
      "tigr": 5704,
      "tests": 5705,
      "walls": 5706,
      "##buk": 5707,
      "##iam": 5708,
      "##ium": 5709,
      "##kar": 5710,
      "##ydr": 5711,
      "##lif": 5712,
      "##daw": 5713,
      "##fe": 5714,
      "##fir": 5715,
      "##edi": 5716,
      "ine": 5717,
      "##atr": 5718,
      "##ece": 5719,
      "##acting": 5720,
      "##stances": 5721,
      "hab": 5722,
      "haem": 5723,
      "##uta": 5724,
      "202": 5725,
      "always": 5726,
      "##umes": 5727,
      "##ada": 5728,
      "##ador": 5729,
      "##adan": 5730,
      "reporters": 5731,
      "complic": 5732,
      "residence": 5733,
      "moist": 5734,
      "extr": 5735,
      "unch": 5736,
      "unless": 5737,
      "counter": 5738,
      "##dsl": 5739,
      "arms": 5740,
      "italy": 5741,
      "##ternoon": 5742,
      "maha": 5743,
      "meth": 5744,
      "metres": 5745,
      "infested": 5746,
      "afternoon": 5747,
      "emb": 5748,
      "embank": 5749,
      "drive": 5750,
      "respect": 5751,
      "synd": 5752,
      "governmental": 5753,
      "##uban": 5754,
      "minors": 5755,
      "records": 5756,
      "102": 5757,
      "maintained": 5758,
      "appe": 5759,
      "timbuk": 5760,
      "198": 5761,
      "135": 5762,
      "injuring": 5763,
      "collab": 5764,
      "quake": 5765,
      "burma": 5766,
      "##ogn": 5767,
      "indicating": 5768,
      "distributing": 5769,
      "informants": 5770,
      "palestine": 5771,
      "mudsl": 5772,
      "cleared": 5773,
      "developing": 5774,
      "preventive": 5775,
      "heads": 5776,
      "closely": 5777,
      "strategic": 5778,
      "barang": 5779,
      "hands": 5780,
      "exacerbating": 5781,
      "combat": 5782,
      "kilo": 5783,
      "street": 5784,
      "charity": 5785,
      "greatly": 5786,
      "claims": 5787,
      "holding": 5788,
      "abduction": 5789,
      "breast": 5790,
      "constant": 5791,
      "pipes": 5792,
      "rehabilit": 5793,
      "batt": 5794,
      "benefit": 5795,
      "testim": 5796,
      "cease": 5797,
      "egyptian": 5798,
      "babies": 5799,
      "minority": 5800,
      "ambulance": 5801,
      "ambulances": 5802,
      "splm": 5803,
      "exhaust": 5804,
      "pneumonic": 5805,
      "pneumonia": 5806,
      "amounts": 5807,
      "placed": 5808,
      "baghdad": 5809,
      "predicted": 5810,
      "settings": 5811,
      "obstac": 5812,
      "situations": 5813,
      "typhoid": 5814,
      "enclave": 5815,
      "owing": 5816,
      "circumstances": 5817,
      "defecation": 5818,
      "sporadic": 5819,
      "question": 5820,
      "burkina": 5821,
      "meteorological": 5822,
      "maungdaw": 5823,
      "vdcs": 5824,
      "burmese": 5825,
      "icrc": 5826,
      "moisture": 5827,
      "timbuktu": 5828,
      "bra": 5829,
      "beds": 5830,
      "dra": 5831,
      "hur": 5832,
      "jose": 5833,
      "kak": 5834,
      "kalem": 5835,
      "lan": 5836,
      "lac": 5837,
      "lah": 5838,
      "oh": 5839,
      "pah": 5840,
      "pcr": 5841,
      "poul": 5842,
      "rating": 5843,
      "sizes": 5844,
      "tight": 5845,
      "vide": 5846,
      "view": 5847,
      "wd": 5848,
      "##tt": 5849,
      "##bil": 5850,
      "##kuk": 5851,
      "##oth": 5852,
      "##oto": 5853,
      "##scept": 5854,
      "##pass": 5855,
      "##lan": 5856,
      "##dc": 5857,
      "##zz": 5858,
      "##v2": 5859,
      "##esters": 5860,
      "##inary": 5861,
      "##onies": 5862,
      "##ream": 5863,
      "##isf": 5864,
      "reli": 5865,
      "##oua": 5866,
      "##igence": 5867,
      "##tsp": 5868,
      "ach": 5869,
      "acad": 5870,
      "suscept": 5871,
      "seem": 5872,
      "##ume": 5873,
      "deported": 5874,
      "##abad": 5875,
      "ana": 5876,
      "angol": 5877,
      "ship": 5878,
      "unreg": 5879,
      "uncle": 5880,
      "unidentified": 5881,
      "sand": 5882,
      "##istic": 5883,
      "ars": 5884,
      "aden": 5885,
      "trial": 5886,
      "refer": 5887,
      "##alla": 5888,
      "sched": 5889,
      "serve": 5890,
      "manage": 5891,
      "sought": 5892,
      "damaging": 5893,
      "spent": 5894,
      "syp": 5895,
      "seasonally": 5896,
      "emerged": 5897,
      "protected": 5898,
      "poorly": 5899,
      "##aund": 5900,
      "samb": 5901,
      "scaled": 5902,
      "scaling": 5903,
      "125": 5904,
      "123": 5905,
      "farmer": 5906,
      "militant": 5907,
      "approx": 5908,
      "sole": 5909,
      "145": 5910,
      "buying": 5911,
      "ends": 5912,
      "ended": 5913,
      "132": 5914,
      "measure": 5915,
      "collecting": 5916,
      "raise": 5917,
      "effectively": 5918,
      "248": 5919,
      "274": 5920,
      "prime": 5921,
      "280": 5922,
      "281": 5923,
      "210": 5924,
      "medication": 5925,
      "adequately": 5926,
      "importance": 5927,
      "escap": 5928,
      "cleaning": 5929,
      "quarters": 5930,
      "bush": 5931,
      "grounds": 5932,
      "fisher": 5933,
      "assemb": 5934,
      "exacerbate": 5935,
      "retaken": 5936,
      "##iliation": 5937,
      "stretched": 5938,
      "closures": 5939,
      "charges": 5940,
      "creating": 5941,
      "directorate": 5942,
      "speed": 5943,
      "##iyas": 5944,
      "zambez": 5945,
      "prepare": 5946,
      "piped": 5947,
      "hotsp": 5948,
      "venezuelan": 5949,
      "venezuelans": 5950,
      "participation": 5951,
      "settled": 5952,
      "roof": 5953,
      "ramallah": 5954,
      "profession": 5955,
      "attendance": 5956,
      "ewars": 5957,
      "elements": 5958,
      "subject": 5959,
      "obtaining": 5960,
      "kurdistan": 5961,
      "pushed": 5962,
      "mobilization": 5963,
      "limitations": 5964,
      "regularly": 5965,
      "##ommunic": 5966,
      "kirkuk": 5967,
      "sarc": 5968,
      "atypical": 5969,
      "perpetrators": 5970,
      "ruling": 5971,
      "comparison": 5972,
      "kassala": 5973,
      "johor": 5974,
      "faso": 5975,
      "panyiji": 5976,
      "acceptable": 5977,
      "scores": 5978,
      "##xico": 5979,
      "##person": 5980,
      "steadily": 5981,
      "impossible": 5982,
      "baladiyas": 5983,
      "fertilizers": 5984,
      "erez": 5985,
      "ravaged": 5986,
      "exercise": 5987,
      "garbage": 5988,
      "cadre": 5989,
      "responsibility": 5990,
      "haemorrhagic": 5991,
      "syndrom": 5992,
      "kalemie": 5993,
      "poultry": 5994,
      "panyijiar": 5995,
      "bol": 5996,
      "binh": 5997,
      "dur": 5998,
      "dig": 5999,
      "fro": 6000,
      "fight": 6001,
      "faw": 6002,
      "ga": 6003,
      "ig": 6004,
      "jaund": 6005,
      "lom": 6006,
      "lus": 6007,
      "lighting": 6008,
      "mac": 6009,
      "mach": 6010,
      "nav": 6011,
      "os": 6012,
      "russ": 6013,
      "sant": 6014,
      "sans": 6015,
      "ub": 6016,
      "ux": 6017,
      "wid": 6018,
      "##uing": 6019,
      "##uters": 6020,
      "##iber": 6021,
      "##iado": 6022,
      "##kol": 6023,
      "##sk": 6024,
      "##pal": 6025,
      "##ni": 6026,
      "##ele": 6027,
      "##gs": 6028,
      "##mayo": 6029,
      "##cul": 6030,
      "##do": 6031,
      "##fac": 6032,
      "##inity": 6033,
      "##onic": 6034,
      "##atta": 6035,
      "##anted": 6036,
      "tom": 6037,
      "##isons": 6038,
      "##ooting": 6039,
      "##idah": 6040,
      "##stream": 6041,
      "##opa": 6042,
      "2000": 6043,
      "chair": 6044,
      "aler": 6045,
      "proce": 6046,
      "nepal": 6047,
      "sta": 6048,
      "resurg": 6049,
      "anc": 6050,
      "sham": 6051,
      "##iang": 6052,
      "unl": 6053,
      "childhood": 6054,
      "princ": 6055,
      "prisons": 6056,
      "##overed": 6057,
      "weight": 6058,
      "note": 6059,
      "notice": 6060,
      "highway": 6061,
      "##holic": 6062,
      "mexico": 6063,
      "infants": 6064,
      "rainfed": 6065,
      "aman": 6066,
      "medit": 6067,
      "play": 6068,
      "plastic": 6069,
      "spend": 6070,
      "spells": 6071,
      "newborn": 6072,
      "respective": 6073,
      "mayor": 6074,
      "surpl": 6075,
      "recogn": 6076,
      "estimations": 6077,
      "105": 6078,
      "107": 6079,
      "miles": 6080,
      "depending": 6081,
      "##truct": 6082,
      "intermit": 6083,
      "became": 6084,
      "approval": 6085,
      "soil": 6086,
      "treating": 6087,
      "captured": 6088,
      "##ieve": 6089,
      "192": 6090,
      "subur": 6091,
      "nearest": 6092,
      "presid": 6093,
      "intell": 6094,
      "greece": 6095,
      "identity": 6096,
      "guard": 6097,
      "priorities": 6098,
      "muk": 6099,
      "downward": 6100,
      "takes": 6101,
      "repris": 6102,
      "catholic": 6103,
      "caraga": 6104,
      "exceeded": 6105,
      "payments": 6106,
      "allowing": 6107,
      "##afar": 6108,
      "named": 6109,
      "engaging": 6110,
      "initially": 6111,
      "stories": 6112,
      "establish": 6113,
      "constrained": 6114,
      "apart": 6115,
      "explosion": 6116,
      "disputes": 6117,
      "plantations": 6118,
      "agreed": 6119,
      "##iyah": 6120,
      "bags": 6121,
      "hold": 6122,
      "escalating": 6123,
      "tenure": 6124,
      "revised": 6125,
      "950": 6126,
      "focused": 6127,
      "consequence": 6128,
      "frontier": 6129,
      "devastated": 6130,
      "exposing": 6131,
      "colombian": 6132,
      "pockets": 6133,
      "rebels": 6134,
      "births": 6135,
      "arabia": 6136,
      "reinforce": 6137,
      "stunted": 6138,
      "##dpv2": 6139,
      "debt": 6140,
      "murder": 6141,
      "lesoth": 6142,
      "maputo": 6143,
      "petrol": 6144,
      "atypically": 6145,
      "##standing": 6146,
      "kajiado": 6147,
      "unrest": 6148,
      "subsequently": 6149,
      "setsan": 6150,
      "ebola": 6151,
      "schemes": 6152,
      "dref": 6153,
      "dismant": 6154,
      "hardship": 6155,
      "choice": 6156,
      "intimidation": 6157,
      "cvdpv2": 6158,
      "language": 6159,
      "moment": 6160,
      "daugh": 6161,
      "collaboration": 6162,
      "pahang": 6163,
      "angola": 6164,
      "jaundice": 6165,
      "intermitt": 6166,
      "lesotho": 6167,
      "08": 6168,
      "aerial": 6169,
      "dir": 6170,
      "gul": 6171,
      "gard": 6172,
      "horn": 6173,
      "jih": 6174,
      "kr": 6175,
      "kor": 6176,
      "lag": 6177,
      "listed": 6178,
      "mp": 6179,
      "nas": 6180,
      "nab": 6181,
      "qune": 6182,
      "roc": 6183,
      "rented": 6184,
      "sending": 6185,
      "taw": 6186,
      "vary": 6187,
      "won": 6188,
      "wish": 6189,
      "##tun": 6190,
      "##bara": 6191,
      "##iu": 6192,
      "##oz": 6193,
      "##xi": 6194,
      "##pi": 6195,
      "##eper": 6196,
      "##ga": 6197,
      "##ctions": 6198,
      "##here": 6199,
      "##jah": 6200,
      "##eri": 6201,
      "##onom": 6202,
      "##attered": 6203,
      "##itt": 6204,
      "##itan": 6205,
      "##itra": 6206,
      "##anan": 6207,
      "##ancy": 6208,
      "tob": 6209,
      "##rown": 6210,
      "##ecins": 6211,
      "##acts": 6212,
      "##tral": 6213,
      "conv": 6214,
      "##ulin": 6215,
      "whilst": 6216,
      "alao": 6217,
      "disch": 6218,
      "##ffee": 6219,
      "incent": 6220,
      "##uck": 6221,
      "shooting": 6222,
      "leish": 6223,
      "counsel": 6224,
      "##ushing": 6225,
      "crack": 6226,
      "remove": 6227,
      "impr": 6228,
      "afp": 6229,
      "medecins": 6230,
      "spoke": 6231,
      "popular": 6232,
      "indire": 6233,
      "upro": 6234,
      "upaz": 6235,
      "actual": 6236,
      "coffee": 6237,
      "safer": 6238,
      "nationals": 6239,
      "transitional": 6240,
      "poll": 6241,
      "soaring": 6242,
      "doors": 6243,
      "309": 6244,
      "146": 6245,
      "submitted": 6246,
      "awa": 6247,
      "deliber": 6248,
      "poses": 6249,
      "termin": 6250,
      "urged": 6251,
      "determined": 6252,
      "intended": 6253,
      "halt": 6254,
      "latter": 6255,
      "losing": 6256,
      "muac": 6257,
      "defence": 6258,
      "downp": 6259,
      "purification": 6260,
      "conducting": 6261,
      "kenyan": 6262,
      "##shasa": 6263,
      "cycle": 6264,
      "backed": 6265,
      "##erry": 6266,
      "##errane": 6267,
      "muna": 6268,
      "considerably": 6269,
      "420": 6270,
      "failing": 6271,
      "payment": 6272,
      "investments": 6273,
      "denial": 6274,
      "mattress": 6275,
      "chronically": 6276,
      "satisf": 6277,
      "commodity": 6278,
      "advance": 6279,
      "kept": 6280,
      "absent": 6281,
      "missed": 6282,
      "650": 6283,
      "tradition": 6284,
      "virt": 6285,
      "irrig": 6286,
      "create": 6287,
      "hardest": 6288,
      "airstrike": 6289,
      "attempt": 6290,
      "communications": 6291,
      "eritrean": 6292,
      "kisumu": 6293,
      "necessities": 6294,
      "truck": 6295,
      "attempted": 6296,
      "cultivated": 6297,
      "belg": 6298,
      "landmine": 6299,
      "investigate": 6300,
      "dollar": 6301,
      "accounting": 6302,
      "kidnapping": 6303,
      "detailed": 6304,
      "sleep": 6305,
      "deepening": 6306,
      "bedou": 6307,
      "confiscation": 6308,
      "widely": 6309,
      "hawiga": 6310,
      "changes": 6311,
      "exclusive": 6312,
      "placing": 6313,
      "baghlan": 6314,
      "adolescents": 6315,
      "resolution": 6316,
      "cooperation": 6317,
      "category": 6318,
      "easily": 6319,
      "husb": 6320,
      "witnesses": 6321,
      "sofala": 6322,
      "roughly": 6323,
      "warrap": 6324,
      "perceived": 6325,
      "gradually": 6326,
      "compromised": 6327,
      "traumat": 6328,
      "kinshasa": 6329,
      "indiscriminate": 6330,
      "mangoro": 6331,
      "affiliated": 6332,
      "rubble": 6333,
      "electrical": 6334,
      "bombardment": 6335,
      "kitchen": 6336,
      "ratio": 6337,
      "tigray": 6338,
      "##firmed": 6339,
      "appealed": 6340,
      "testimonies": 6341,
      "fishermen": 6342,
      "resurgence": 6343,
      "mediterrane": 6344,
      "frontieres": 6345,
      "jihad": 6346,
      "quneitra": 6347,
      "alaotra": 6348,
      "leishman": 6349,
      "indirect": 6350,
      "mediterranean": 6351,
      "ber": 6352,
      "best": 6353,
      "boma": 6354,
      "bacter": 6355,
      "cow": 6356,
      "cub": 6357,
      "caught": 6358,
      "dc": 6359,
      "eye": 6360,
      "fixed": 6361,
      "gone": 6362,
      "gave": 6363,
      "hence": 6364,
      "hang": 6365,
      "hondur": 6366,
      "ion": 6367,
      "kat": 6368,
      "kund": 6369,
      "load": 6370,
      "lanao": 6371,
      "mic": 6372,
      "nim": 6373,
      "nak": 6374,
      "ox": 6375,
      "ond": 6376,
      "rich": 6377,
      "ruk": 6378,
      "ssp": 6379,
      "section": 6380,
      "sool": 6381,
      "vo": 6382,
      "vom": 6383,
      "yaz": 6384,
      "##oes": 6385,
      "##off": 6386,
      "##pur": 6387,
      "##mand": 6388,
      "##wise": 6389,
      "##function": 6390,
      "##few": 6391,
      "##inal": 6392,
      "##ongh": 6393,
      "##ends": 6394,
      "##atu": 6395,
      "##ora": 6396,
      "##ortion": 6397,
      "tour": 6398,
      "##istered": 6399,
      "##iling": 6400,
      "reven": 6401,
      "##leag": 6402,
      "##lebr": 6403,
      "bean": 6404,
      "##amed": 6405,
      "##amin": 6406,
      "##amatic": 6407,
      "contracted": 6408,
      "##olen": 6409,
      "##utical": 6410,
      "##ired": 6411,
      "alger": 6412,
      "nego": 6413,
      "seb": 6414,
      "sev": 6415,
      "stability": 6416,
      "step": 6417,
      "stagn": 6418,
      "##ithi": 6419,
      "debr": 6420,
      "##illing": 6421,
      "##abies": 6422,
      "##este": 6423,
      "resource": 6424,
      "unus": 6425,
      "imag": 6426,
      "diy": 6427,
      "overl": 6428,
      "overst": 6429,
      "managing": 6430,
      "##ouses": 6431,
      "clan": 6432,
      "locust": 6433,
      "lived": 6434,
      "##wet": 6435,
      "spir": 6436,
      "compet": 6437,
      "dried": 6438,
      "drink": 6439,
      "dramatic": 6440,
      "##endi": 6441,
      "evol": 6442,
      "expects": 6443,
      "offices": 6444,
      "minus": 6445,
      "106": 6446,
      "room": 6447,
      "avdi": 6448,
      "signed": 6449,
      "124": 6450,
      "operate": 6451,
      "timor": 6452,
      "transported": 6453,
      "poles": 6454,
      "demands": 6455,
      "brunt": 6456,
      "raided": 6457,
      "washing": 6458,
      "moro": 6459,
      "guid": 6460,
      "threaten": 6461,
      "defenders": 6462,
      "295": 6463,
      "systematic": 6464,
      "restriction": 6465,
      "restricting": 6466,
      "frequ": 6467,
      "##ombo": 6468,
      "delivering": 6469,
      "salary": 6470,
      "alongside": 6471,
      "everyone": 6472,
      "vicinity": 6473,
      "##work": 6474,
      "helping": 6475,
      "paying": 6476,
      "barre": 6477,
      "representatives": 6478,
      "denv": 6479,
      "association": 6480,
      "collapsing": 6481,
      "involve": 6482,
      "##holders": 6483,
      "curfew": 6484,
      "certific": 6485,
      "constit": 6486,
      "constitution": 6487,
      "constitute": 6488,
      "strengthened": 6489,
      "walked": 6490,
      "celebr": 6491,
      "approaches": 6492,
      "contracting": 6493,
      "depression": 6494,
      "appeared": 6495,
      "preparation": 6496,
      "updated": 6497,
      "930": 6498,
      "concentration": 6499,
      "churches": 6500,
      "feeling": 6501,
      "calm": 6502,
      "breakdown": 6503,
      "debts": 6504,
      "spla": 6505,
      "kafr": 6506,
      "sustainable": 6507,
      "meru": 6508,
      "ajs": 6509,
      "gangs": 6510,
      "kajo": 6511,
      "unrwa": 6512,
      "married": 6513,
      "subsequent": 6514,
      "variety": 6515,
      "wounds": 6516,
      "reservoirs": 6517,
      "philippines": 6518,
      "successful": 6519,
      "comprising": 6520,
      "insurgents": 6521,
      "undergo": 6522,
      "diminished": 6523,
      "mopti": 6524,
      "allocated": 6525,
      "##ographic": 6526,
      "korea": 6527,
      "avalanches": 6528,
      "intercommunal": 6529,
      "enhanced": 6530,
      "transhumance": 6531,
      "hodeidah": 6532,
      "mortar": 6533,
      "inequ": 6534,
      "kakuma": 6535,
      "video": 6536,
      "susceptible": 6537,
      "assembly": 6538,
      "surplus": 6539,
      "intelligence": 6540,
      "debris": 6541,
      "avdiivka": 6542,
      "aus": 6543,
      "bn": 6544,
      "bent": 6545,
      "bari": 6546,
      "cant": 6547,
      "corn": 6548,
      "cfs": 6549,
      "falls": 6550,
      "gen": 6551,
      "hind": 6552,
      "hfs": 6553,
      "hila": 6554,
      "iv": 6555,
      "ja": 6556,
      "jod": 6557,
      "lamb": 6558,
      "mess": 6559,
      "ns": 6560,
      "rans": 6561,
      "ways": 6562,
      "##aver": 6563,
      "##pect": 6564,
      "##ein": 6565,
      "##eur": 6566,
      "##gur": 6567,
      "##gian": 6568,
      "##math": 6569,
      "##hips": 6570,
      "##fort": 6571,
      "##vated": 6572,
      "##anced": 6573,
      "##icans": 6574,
      "##rot": 6575,
      "reun": 6576,
      "##ouse": 6577,
      "##ecommunic": 6578,
      "formed": 6579,
      "forty": 6580,
      "hay": 6581,
      "hav": 6582,
      "##uled": 6583,
      "##irb": 6584,
      "##mental": 6585,
      "seg": 6586,
      "stake": 6587,
      "stolen": 6588,
      "disability": 6589,
      "##imar": 6590,
      "##abled": 6591,
      "##ateau": 6592,
      "##eme": 6593,
      "mother": 6594,
      "##akal": 6595,
      "##akwet": 6596,
      "shr": 6597,
      "shock": 6598,
      "shah": 6599,
      "##astically": 6600,
      "extra": 6601,
      "unli": 6602,
      "##ounced": 6603,
      "contacts": 6604,
      "imminent": 6605,
      "regener": 6606,
      "wet": 6607,
      "marakwet": 6608,
      "trained": 6609,
      "agents": 6610,
      "##apara": 6611,
      "norwe": 6612,
      "malays": 6613,
      "crip": 6614,
      "confron": 6615,
      "plw": 6616,
      "plots": 6617,
      "plateau": 6618,
      "##ody": 6619,
      "drastically": 6620,
      "consists": 6621,
      "expand": 6622,
      "mayo": 6623,
      "##angi": 6624,
      "undern": 6625,
      "undermine": 6626,
      "locally": 6627,
      "liqu": 6628,
      "##ortun": 6629,
      "surpass": 6630,
      "protesters": 6631,
      "109": 6632,
      "appoint": 6633,
      "schooling": 6634,
      "lasting": 6635,
      "rooms": 6636,
      "##aze": 6637,
      "##under": 6638,
      "aftermath": 6639,
      "##akeh": 6640,
      "sample": 6641,
      "sanitary": 6642,
      "colleag": 6643,
      "score": 6644,
      "scattered": 6645,
      "113": 6646,
      "119": 6647,
      "179": 6648,
      "17th": 6649,
      "works": 6650,
      "227": 6651,
      "228": 6652,
      "receives": 6653,
      "effort": 6654,
      "warm": 6655,
      "##uga": 6656,
      "intensive": 6657,
      "organised": 6658,
      "231": 6659,
      "turning": 6660,
      "hyd": 6661,
      "270": 6662,
      "threatens": 6663,
      "defin": 6664,
      "requirement": 6665,
      "salamat": 6666,
      "erbil": 6667,
      "cars": 6668,
      "bangui": 6669,
      "runs": 6670,
      "sheep": 6671,
      "mobility": 6672,
      "casualty": 6673,
      "smaller": 6674,
      "surviving": 6675,
      "hundred": 6676,
      "investment": 6677,
      "clinical": 6678,
      "donor": 6679,
      "initiated": 6680,
      "484": 6681,
      "prevalent": 6682,
      "viral": 6683,
      "posts": 6684,
      "forecasts": 6685,
      "dispat": 6686,
      "bombs": 6687,
      "recruited": 6688,
      "courts": 6689,
      "intensify": 6690,
      "quantities": 6691,
      "nyala": 6692,
      "reflecting": 6693,
      "marriages": 6694,
      "accommodated": 6695,
      "eventually": 6696,
      "contract": 6697,
      "classroom": 6698,
      "entirely": 6699,
      "meetings": 6700,
      "accounted": 6701,
      "unfav": 6702,
      "unfortun": 6703,
      "liberation": 6704,
      "rule": 6705,
      "elevated": 6706,
      "rounds": 6707,
      "containers": 6708,
      "catastrophic": 6709,
      "believe": 6710,
      "fifty": 6711,
      "ibb": 6712,
      "telecommunic": 6713,
      "nevertheless": 6714,
      "books": 6715,
      "unconfirmed": 6716,
      "prevailing": 6717,
      "misr": 6718,
      "industry": 6719,
      "supplementary": 6720,
      "mountains": 6721,
      "papua": 6722,
      "stricken": 6723,
      "fashoda": 6724,
      "png": 6725,
      "credit": 6726,
      "budget": 6727,
      "withdraw": 6728,
      "excessive": 6729,
      "azerbaijan": 6730,
      "surgeries": 6731,
      "applied": 6732,
      "disposal": 6733,
      "circulating": 6734,
      "harmonise": 6735,
      "houthi": 6736,
      "hrw": 6737,
      "##ydration": 6738,
      "##feeding": 6739,
      "embankment": 6740,
      "mudslides": 6741,
      "breastfeeding": 6742,
      "academic": 6743,
      "unregistered": 6744,
      "unclear": 6745,
      "samburu": 6746,
      "syndrome": 6747,
      "lomami": 6748,
      "staples": 6749,
      "presidential": 6750,
      "uprooted": 6751,
      "mattresses": 6752,
      "traditionally": 6753,
      "honduras": 6754,
      "kunduz": 6755,
      "vomiting": 6756,
      "bentiu": 6757,
      "hilaweyn": 6758,
      "unlike": 6759,
      "norwegian": 6760,
      "malaysia": 6761,
      "colleagues": 6762,
      "blow": 6763,
      "bamb": 6764,
      "barely": 6765,
      "card": 6766,
      "doses": 6767,
      "ech": 6768,
      "fi": 6769,
      "fel": 6770,
      "fcs": 6771,
      "gets": 6772,
      "giving": 6773,
      "ii": 6774,
      "io": 6775,
      "ieds": 6776,
      "jab": 6777,
      "lying": 6778,
      "leste": 6779,
      "machin": 6780,
      "nh": 6781,
      "nay": 6782,
      "ol": 6783,
      "pac": 6784,
      "plus": 6785,
      "pushing": 6786,
      "tb": 6787,
      "vit": 6788,
      "vent": 6789,
      "vou": 6790,
      "wad": 6791,
      "##bal": 6792,
      "##bas": 6793,
      "##ipping": 6794,
      "##ry": 6795,
      "##ping": 6796,
      "##lies": 6797,
      "##nat": 6798,
      "##hance": 6799,
      "##vi": 6800,
      "##13": 6801,
      "##jo": 6802,
      "thunder": 6803,
      "##oni": 6804,
      "##onds": 6805,
      "##enic": 6806,
      "##att": 6807,
      "##atically": 6808,
      "##oring": 6809,
      "beach": 6810,
      "##amey": 6811,
      "##sters": 6812,
      "##olo": 6813,
      "haven": 6814,
      "hagen": 6815,
      "##ulu": 6816,
      "super": 6817,
      "wholes": 6818,
      "pros": 6819,
      "prominent": 6820,
      "disabled": 6821,
      "##ivo": 6822,
      "##imated": 6823,
      "##imens": 6824,
      "##illed": 6825,
      "##estead": 6826,
      "##pling": 6827,
      "motiv": 6828,
      "motor": 6829,
      "shir": 6830,
      "shall": 6831,
      "accumul": 6832,
      "##iant": 6833,
      "unim": 6834,
      "unif": 6835,
      "##rence": 6836,
      "##andan": 6837,
      "contro": 6838,
      "implications": 6839,
      "##ppes": 6840,
      "assail": 6841,
      "arable": 6842,
      "maro": 6843,
      "true": 6844,
      "accessibility": 6845,
      "faces": 6846,
      "malakal": 6847,
      "##atha": 6848,
      "mai": 6849,
      "meher": 6850,
      "continuation": 6851,
      "remov": 6852,
      "humanitarians": 6853,
      "enforced": 6854,
      "enhance": 6855,
      "rainfalls": 6856,
      "communes": 6857,
      "strongh": 6858,
      "medium": 6859,
      "plains": 6860,
      "serves": 6861,
      "##ostic": 6862,
      "phone": 6863,
      "eval": 6864,
      "expanded": 6865,
      "##ango": 6866,
      "undermined": 6867,
      "104": 6868,
      "eln": 6869,
      "reliance": 6870,
      "bokol": 6871,
      "whereas": 6872,
      "scabies": 6873,
      "interior": 6874,
      "interrupted": 6875,
      "121": 6876,
      "farmlands": 6877,
      "timan": 6878,
      "workforce": 6879,
      "teen": 6880,
      "tele": 6881,
      "166": 6882,
      "##aceutical": 6883,
      "brig": 6884,
      "brief": 6885,
      "buried": 6886,
      "obtained": 6887,
      "hospitalised": 6888,
      "bani": 6889,
      "generated": 6890,
      "232": 6891,
      "leads": 6892,
      "##ropol": 6893,
      "grass": 6894,
      "guar": 6895,
      "vaccinations": 6896,
      "297": 6897,
      "solution": 6898,
      "dark": 6899,
      "anything": 6900,
      "##indh": 6901,
      "covers": 6902,
      "keny": 6903,
      "stateless": 6904,
      "allows": 6905,
      "psycho": 6906,
      "390": 6907,
      "relevant": 6908,
      "stored": 6909,
      "keji": 6910,
      "implementing": 6911,
      "584": 6912,
      "immunisation": 6913,
      "ezz": 6914,
      "bombings": 6915,
      "derived": 6916,
      "pakistani": 6917,
      "karnat": 6918,
      "passeng": 6919,
      "journalist": 6920,
      "agreements": 6921,
      "consumer": 6922,
      "##iyeh": 6923,
      "homestead": 6924,
      "weakening": 6925,
      "holy": 6926,
      "sentenced": 6927,
      "barrier": 6928,
      "approaching": 6929,
      "cultivate": 6930,
      "pulka": 6931,
      "ramadan": 6932,
      "preparations": 6933,
      "unemployed": 6934,
      "assaults": 6935,
      "##iasis": 6936,
      "undertake": 6937,
      "favourable": 6938,
      "kutum": 6939,
      "prioritization": 6940,
      "dawn": 6941,
      "fifteen": 6942,
      "telafar": 6943,
      "consistently": 6944,
      "happened": 6945,
      "repeatedly": 6946,
      "slowly": 6947,
      "gambia": 6948,
      "meteo": 6949,
      "niamey": 6950,
      "nippes": 6951,
      "convoy": 6952,
      "dwell": 6953,
      "reopened": 6954,
      "replacement": 6955,
      "diagnostic": 6956,
      "pharmaceutical": 6957,
      "subsidies": 6958,
      "rdts": 6959,
      "sinai": 6960,
      "uncertainty": 6961,
      "potatoes": 6962,
      "behaviour": 6963,
      "cheap": 6964,
      "helicopter": 6965,
      "##ullah": 6966,
      "methods": 6967,
      "barangays": 6968,
      "hurt": 6969,
      "scheduled": 6970,
      "alerts": 6971,
      "crackdown": 6972,
      "terminal": 6973,
      "virtually": 6974,
      "leishmaniasis": 6975,
      "imagery": 6976,
      "overstret": 6977,
      "frequency": 6978,
      "regeneration": 6979,
      "confront": 6980,
      "vitamin": 6981,
      "vouch": 6982,
      "thunderst": 6983,
      "removal": 6984,
      "karnataka": 6985,
      "cance": 6986,
      "cards": 6987,
      "dak": 6988,
      "dos": 6989,
      "dah": 6990,
      "ein": 6991,
      "equate": 6992,
      "fg": 6993,
      "fast": 6994,
      "fence": 6995,
      "fier": 6996,
      "fizi": 6997,
      "ger": 6998,
      "gao": 6999,
      "gdp": 7000,
      "gez": 7001,
      "hum": 7002,
      "ign": 7003,
      "kel": 7004,
      "kand": 7005,
      "ly": 7006,
      "lain": 7007,
      "mendi": 7008,
      "mimar": 7009,
      "pain": 7010,
      "pag": 7011,
      "rab": 7012,
      "sight": 7013,
      "tse": 7014,
      "tab": 7015,
      "tend": 7016,
      "tamb": 7017,
      "tonga": 7018,
      "ul": 7019,
      "wing": 7020,
      "wip": 7021,
      "yarm": 7022,
      "zika": 7023,
      "##tad": 7024,
      "##iend": 7025,
      "##kona": 7026,
      "##yber": 7027,
      "##yale": 7028,
      "##no": 7029,
      "##ef": 7030,
      "##mo": 7031,
      "##mination": 7032,
      "##war": 7033,
      "##ze": 7034,
      "##erted": 7035,
      "##iny": 7036,
      "inland": 7037,
      "##arivo": 7038,
      "##asy": 7039,
      "##anu": 7040,
      "##anz": 7041,
      "##anus": 7042,
      "##reach": 7043,
      "tot": 7044,
      "toward": 7045,
      "##isa": 7046,
      "reuters": 7047,
      "##lel": 7048,
      "##trial": 7049,
      "beating": 7050,
      "##iding": 7051,
      "cond": 7052,
      "congest": 7053,
      "ons": 7054,
      "##igan": 7055,
      "##opo": 7056,
      "##ope": 7057,
      "##sels": 7058,
      "acqu": 7059,
      "##els": 7060,
      "chi": 7061,
      "choo": 7062,
      "chib": 7063,
      "stages": 7064,
      "steal": 7065,
      "diss": 7066,
      "deh": 7067,
      "##chr": 7068,
      "##essions": 7069,
      "hear": 7070,
      "attr": 7071,
      "peoples": 7072,
      "##emia": 7073,
      "##uct": 7074,
      "executive": 7075,
      "accur": 7076,
      "unre": 7077,
      "##bercul": 7078,
      "affiliation": 7079,
      "##ando": 7080,
      "##lustr": 7081,
      "outreach": 7082,
      "conting": 7083,
      "contained": 7084,
      "##using": 7085,
      "adds": 7086,
      "tract": 7087,
      "facto": 7088,
      "factions": 7089,
      "thanks": 7090,
      "worm": 7091,
      "flights": 7092,
      "critic": 7093,
      "maim": 7094,
      "prete": 7095,
      "infant": 7096,
      "impun": 7097,
      "impass": 7098,
      "remainder": 7099,
      "phc": 7100,
      "constructed": 7101,
      "sheltered": 7102,
      "otherwise": 7103,
      "##anged": 7104,
      "militar": 7105,
      "arrange": 7106,
      "limits": 7107,
      "aftersh": 7108,
      "coli": 7109,
      "internet": 7110,
      "127": 7111,
      "lowland": 7112,
      "116": 7113,
      "118": 7114,
      "174": 7115,
      "aware": 7116,
      "cancer": 7117,
      "133": 7118,
      "extortion": 7119,
      "friend": 7120,
      "raises": 7121,
      "##ledge": 7122,
      "indicative": 7123,
      "efficient": 7124,
      "introduc": 7125,
      "234": 7126,
      "mora": 7127,
      "##epers": 7128,
      "irma": 7129,
      "288": 7130,
      "equipped": 7131,
      "instability": 7132,
      "decree": 7133,
      "powerful": 7134,
      "yemenis": 7135,
      "purs": 7136,
      "specimens": 7137,
      "illustr": 7138,
      "properly": 7139,
      "khyber": 7140,
      "existent": 7141,
      "antanan": 7142,
      "visiting": 7143,
      "restoration": 7144,
      "qualified": 7145,
      "learners": 7146,
      "mats": 7147,
      "corps": 7148,
      "stores": 7149,
      "advanced": 7150,
      "keeping": 7151,
      "thought": 7152,
      "seeing": 7153,
      "highlight": 7154,
      "postp": 7155,
      "earthquakes": 7156,
      "links": 7157,
      "bombing": 7158,
      "intensity": 7159,
      "passing": 7160,
      "682": 7161,
      "ahmed": 7162,
      "ahmad": 7163,
      "discovered": 7164,
      "settler": 7165,
      "summary": 7166,
      "belt": 7167,
      "leadership": 7168,
      "metropol": 7169,
      "edo": 7170,
      "investigated": 7171,
      "illeg": 7172,
      "libertad": 7173,
      "rescued": 7174,
      "loans": 7175,
      "weapon": 7176,
      "connected": 7177,
      "resorted": 7178,
      "prefect": 7179,
      "preferred": 7180,
      "chemicals": 7181,
      "encour": 7182,
      "tubercul": 7183,
      "##onyi": 7184,
      "degree": 7185,
      "industrial": 7186,
      "easy": 7187,
      "stabilization": 7188,
      "pharmac": 7189,
      "designated": 7190,
      "optimal": 7191,
      "hajjah": 7192,
      "robber": 7193,
      "stigma": 7194,
      "tunnel": 7195,
      "vessels": 7196,
      "floor": 7197,
      "channels": 7198,
      "bureau": 7199,
      "adversely": 7200,
      "sabratha": 7201,
      "degradation": 7202,
      "grenade": 7203,
      "brutal": 7204,
      "patterns": 7205,
      "complicated": 7206,
      "battles": 7207,
      "arson": 7208,
      "igm": 7209,
      "lusaka": 7210,
      "santa": 7211,
      "##faced": 7212,
      "counselling": 7213,
      "irrigated": 7214,
      "bedouin": 7215,
      "negoti": 7216,
      "sebha": 7217,
      "austral": 7218,
      "unfortunately": 7219,
      "machinery": 7220,
      "nayapara": 7221,
      "wholesale": 7222,
      "assailants": 7223,
      "guarant": 7224,
      "overstretched": 7225,
      "gezira": 7226,
      "lainya": 7227,
      "mimaropa": 7228,
      "yarmouk": 7229,
      "congestion": 7230,
      "pretext": 7231,
      "friendly": 7232,
      "antananarivo": 7233,
      "tuberculosis": 7234,
      "ain": 7235,
      "bh": 7236,
      "bom": 7237,
      "buc": 7238,
      "bound": 7239,
      "cel": 7240,
      "cows": 7241,
      "dens": 7242,
      "ey": 7243,
      "fo": 7244,
      "fun": 7245,
      "fair": 7246,
      "gor": 7247,
      "hub": 7248,
      "hills": 7249,
      "ivo": 7250,
      "jal": 7251,
      "ky": 7252,
      "kash": 7253,
      "kobe": 7254,
      "pk": 7255,
      "pic": 7256,
      "pil": 7257,
      "pib": 7258,
      "puts": 7259,
      "ren": 7260,
      "ray": 7261,
      "rah": 7262,
      "raw": 7263,
      "ramp": 7264,
      "si": 7265,
      "secur": 7266,
      "sections": 7267,
      "sri": 7268,
      "sindh": 7269,
      "tent": 7270,
      "tap": 7271,
      "tact": 7272,
      "welf": 7273,
      "yang": 7274,
      "zah": 7275,
      "##uro": 7276,
      "##use": 7277,
      "##bud": 7278,
      "##rio": 7279,
      "##sed": 7280,
      "##pting": 7281,
      "##lated": 7282,
      "##lines": 7283,
      "##n1": 7284,
      "##eb": 7285,
      "##mt": 7286,
      "##mer": 7287,
      "##fam": 7288,
      "##zil": 7289,
      "##vin": 7290,
      "##view": 7291,
      "##vsk": 7292,
      "##eda": 7293,
      "##onding": 7294,
      "intr": 7295,
      "##aran": 7296,
      "##arus": 7297,
      "##asive": 7298,
      "##ano": 7299,
      "##inga": 7300,
      "rej": 7301,
      "retr": 7302,
      "##ecal": 7303,
      "##ths": 7304,
      "##lements": 7305,
      "##aca": 7306,
      "##ools": 7307,
      "beit": 7308,
      "##idated": 7309,
      "asal": 7310,
      "207": 7311,
      "209": 7312,
      "alps": 7313,
      "proc": 7314,
      "prolif": 7315,
      "neon": 7316,
      "stood": 7317,
      "disord": 7318,
      "ants": 7319,
      "moyale": 7320,
      "shift": 7321,
      "extern": 7322,
      "##iana": 7323,
      "##bera": 7324,
      "##ager": 7325,
      "##ife": 7326,
      "aby": 7327,
      "marka": 7328,
      "tri": 7329,
      "##quar": 7330,
      "humans": 7331,
      "humanity": 7332,
      "reference": 7333,
      "norms": 7334,
      "crude": 7335,
      "mapping": 7336,
      "decent": 7337,
      "feb": 7338,
      "enforce": 7339,
      "rainwater": 7340,
      "supre": 7341,
      "median": 7342,
      "employed": 7343,
      "spell": 7344,
      "malnutr": 7345,
      "lacks": 7346,
      "minutes": 7347,
      "protective": 7348,
      "elect": 7349,
      "relies": 7350,
      "reliant": 7351,
      "averages": 7352,
      "rok": 7353,
      "cote": 7354,
      "coerc": 7355,
      "villa": 7356,
      "sanctions": 7357,
      "scene": 7358,
      "##awful": 7359,
      "furn": 7360,
      "option": 7361,
      "sudden": 7362,
      "173": 7363,
      "nationally": 7364,
      "worker": 7365,
      "##ganj": 7366,
      "187": 7367,
      "itself": 7368,
      "capita": 7369,
      "194": 7370,
      "142": 7371,
      "141": 7372,
      "137": 7373,
      "##acco": 7374,
      "verify": 7375,
      "deton": 7376,
      "extend": 7377,
      "rai": 7378,
      "burst": 7379,
      "warplan": 7380,
      "23rd": 7381,
      "greek": 7382,
      "moroc": 7383,
      "hyper": 7384,
      "crossings": 7385,
      "rapes": 7386,
      "intervene": 7387,
      "iraqis": 7388,
      "instances": 7389,
      "freed": 7390,
      "diarrheal": 7391,
      "lesser": 7392,
      "anyone": 7393,
      "hamas": 7394,
      "##affected": 7395,
      "320": 7396,
      "367": 7397,
      "##ajud": 7398,
      "425": 7399,
      "existence": 7400,
      "##what": 7401,
      "helped": 7402,
      "ngala": 7403,
      "learned": 7404,
      "looking": 7405,
      "hectare": 7406,
      "370": 7407,
      "550": 7408,
      "immigr": 7409,
      "corruption": 7410,
      "##fsa": 7411,
      "islamist": 7412,
      "advis": 7413,
      "##ickers": 7414,
      "groundn": 7415,
      "480": 7416,
      "demanding": 7417,
      "520": 7418,
      "trading": 7419,
      "laws": 7420,
      "recovered": 7421,
      "relocate": 7422,
      "baluk": 7423,
      "residency": 7424,
      "suggested": 7425,
      "broad": 7426,
      "prompt": 7427,
      "referrals": 7428,
      "blocking": 7429,
      "evacuate": 7430,
      "bullets": 7431,
      "soldier": 7432,
      "speak": 7433,
      "original": 7434,
      "passed": 7435,
      "consume": 7436,
      "640": 7437,
      "weakened": 7438,
      "bakol": 7439,
      "diverse": 7440,
      "forcible": 7441,
      "citizen": 7442,
      "preposition": 7443,
      "viii": 7444,
      "oromo": 7445,
      "quantitative": 7446,
      "twice": 7447,
      "continuously": 7448,
      "nyirol": 7449,
      "reflected": 7450,
      "walid": 7451,
      "##itral": 7452,
      "pumped": 7453,
      "ranked": 7454,
      "iranian": 7455,
      "belarus": 7456,
      "baby": 7457,
      "gunsh": 7458,
      "possibly": 7459,
      "hampering": 7460,
      "worried": 7461,
      "knowledge": 7462,
      "demolitions": 7463,
      "mudug": 7464,
      "offering": 7465,
      "saleh": 7466,
      "regulations": 7467,
      "fifth": 7468,
      "mitigation": 7469,
      "sunni": 7470,
      "independence": 7471,
      "##sius": 7472,
      "terrorism": 7473,
      "corridors": 7474,
      "tetanus": 7475,
      "happen": 7476,
      "spokesperson": 7477,
      "petro": 7478,
      "tarpa": 7479,
      "filled": 7480,
      "fruits": 7481,
      "snnpr": 7482,
      "filter": 7483,
      "disappearances": 7484,
      "wounding": 7485,
      "mohamed": 7486,
      "rebuilding": 7487,
      "philippine": 7488,
      "executed": 7489,
      "sofia": 7490,
      "tillab": 7491,
      "beaten": 7492,
      "newspaper": 7493,
      "newspapers": 7494,
      "parliamentary": 7495,
      "warehouses": 7496,
      "warehouse": 7497,
      "corresponding": 7498,
      "accelerated": 7499,
      "adopted": 7500,
      "overwhelmed": 7501,
      "##ayeque": 7502,
      "indeed": 7503,
      "extrajud": 7504,
      "unchanged": 7505,
      "brazil": 7506,
      "ohchr": 7507,
      "achieve": 7508,
      "zambezia": 7509,
      "macro": 7510,
      "unlawful": 7511,
      "tobacco": 7512,
      "dischar": 7513,
      "incentives": 7514,
      "exclusively": 7515,
      "cubic": 7516,
      "oxfam": 7517,
      "ondo": 7518,
      "yazidi": 7519,
      "competition": 7520,
      "celebrations": 7521,
      "lambayeque": 7522,
      "##fortable": 7523,
      "stakeholders": 7524,
      "##emeza": 7525,
      "liquidity": 7526,
      "unfavourable": 7527,
      "misrata": 7528,
      "blown": 7529,
      "echo": 7530,
      "felt": 7531,
      "pacific": 7532,
      "motivated": 7533,
      "brigade": 7534,
      "ezzor": 7535,
      "homesteads": 7536,
      "contingency": 7537,
      "impunity": 7538,
      "impassable": 7539,
      "aftershocks": 7540,
      "illegally": 7541,
      "celsius": 7542,
      "ivoire": 7543,
      "pibor": 7544,
      "welfare": 7545,
      "prolifer": 7546,
      "external": 7547,
      "warplanes": 7548,
      "2m": 7549,
      "2nd": 7550,
      "ble": 7551,
      "bub": 7552,
      "cs": 7553,
      "cough": 7554,
      "cells": 7555,
      "dine": 7556,
      "fal": 7557,
      "gos": 7558,
      "gene": 7559,
      "grown": 7560,
      "huts": 7561,
      "hct": 7562,
      "ies": 7563,
      "ice": 7564,
      "ioh": 7565,
      "jaw": 7566,
      "jerry": 7567,
      "kay": 7568,
      "kia": 7569,
      "kail": 7570,
      "kala": 7571,
      "lose": 7572,
      "ml": 7573,
      "mw": 7574,
      "mut": 7575,
      "mab": 7576,
      "mash": 7577,
      "nu": 7578,
      "nang": 7579,
      "nurs": 7580,
      "ot": 7581,
      "osh": 7582,
      "pes": 7583,
      "pour": 7584,
      "pace": 7585,
      "rs": 7586,
      "rv": 7587,
      "rum": 7588,
      "rarely": 7589,
      "sense": 7590,
      "sila": 7591,
      "sier": 7592,
      "tit": 7593,
      "tay": 7594,
      "uele": 7595,
      "wear": 7596,
      "yala": 7597,
      "zam": 7598,
      "##ax": 7599,
      "##bir": 7600,
      "##based": 7601,
      "##ij": 7602,
      "##ki": 7603,
      "##ptions": 7604,
      "##nm": 7605,
      "##ground": 7606,
      "##mun": 7607,
      "##cal": 7608,
      "##cies": 7609,
      "##dy": 7610,
      "##wit": 7611,
      "##hs": 7612,
      "##hali": 7613,
      "##hole": 7614,
      "##ference": 7615,
      "theft": 7616,
      "##atform": 7617,
      "##iture": 7618,
      "##anitary": 7619,
      "##rete": 7620,
      "##ropr": 7621,
      "##lem": 7622,
      "##omatic": 7623,
      "##tri": 7624,
      "##aman": 7625,
      "##amanga": 7626,
      "##amino": 7627,
      "conce": 7628,
      "aside": 7629,
      "##olute": 7630,
      "##olog": 7631,
      "##igi": 7632,
      "##utors": 7633,
      "##sely": 7634,
      "##iri": 7635,
      "##elve": 7636,
      "suitable": 7637,
      "chitral": 7638,
      "store": 7639,
      "stuck": 7640,
      "disse": 7641,
      "dele": 7642,
      "depl": 7643,
      "incid": 7644,
      "incons": 7645,
      "shop": 7646,
      "shill": 7647,
      "unw": 7648,
      "##agger": 7649,
      "healthy": 7650,
      "##ifies": 7651,
      "##usu": 7652,
      "##ibi": 7653,
      "##ibo": 7654,
      "##ibia": 7655,
      "mark": 7656,
      "maria": 7657,
      "train": 7658,
      "overview": 7659,
      "noticed": 7660,
      "somewhat": 7661,
      "##ldoz": 7662,
      "poison": 7663,
      "manica": 7664,
      "flag": 7665,
      "malaw": 7666,
      "cruc": 7667,
      "remar": 7668,
      "decade": 7669,
      "enorm": 7670,
      "platform": 7671,
      "served": 7672,
      "##achi": 7673,
      "##ansh": 7674,
      "expose": 7675,
      "shells": 7676,
      "minaw": 7677,
      "101": 7678,
      "152": 7679,
      "159": 7680,
      "15th": 7681,
      "appreh": 7682,
      "prevents": 7683,
      "persisted": 7684,
      "coh": 7685,
      "coinc": 7686,
      "paras": 7687,
      "##active": 7688,
      "##actory": 7689,
      "interest": 7690,
      "interrup": 7691,
      "122": 7692,
      "nationalities": 7693,
      "transited": 7694,
      "##grc": 7695,
      "190": 7696,
      "148": 7697,
      "endured": 7698,
      "reaches": 7699,
      "detection": 7700,
      "determine": 7701,
      "buramino": 7702,
      "warn": 7703,
      "grid": 7704,
      "##iciency": 7705,
      "crossfire": 7706,
      "##amba": 7707,
      "277": 7708,
      "gov": 7709,
      "figs": 7710,
      "2007": 7711,
      "2008": 7712,
      "starts": 7713,
      "hamid": 7714,
      "madaya": 7715,
      "eradic": 7716,
      "headquar": 7717,
      "analamanga": 7718,
      "projection": 7719,
      "slaver": 7720,
      "dependency": 7721,
      "look": 7722,
      "bangladeshi": 7723,
      "##afa": 7724,
      "namibia": 7725,
      "##virus": 7726,
      "volume": 7727,
      "diarrhoeal": 7728,
      "radi": 7729,
      "engine": 7730,
      "donors": 7731,
      "tanai": 7732,
      "asset": 7733,
      "handle": 7734,
      "absolute": 7735,
      "525": 7736,
      "kilifi": 7737,
      "traffickers": 7738,
      "closer": 7739,
      "forecasted": 7740,
      "charco": 7741,
      "creates": 7742,
      "630": 7743,
      "bulldoz": 7744,
      "announce": 7745,
      "karamo": 7746,
      "utilities": 7747,
      "baga": 7748,
      "logist": 7749,
      "divers": 7750,
      "abductions": 7751,
      "addressing": 7752,
      "660": 7753,
      "revol": 7754,
      "bayda": 7755,
      "twelve": 7756,
      "reflect": 7757,
      "poliovirus": 7758,
      "azar": 7759,
      "walking": 7760,
      "coordinating": 7761,
      "accepted": 7762,
      "deprived": 7763,
      "wasting": 7764,
      "stockp": 7765,
      "investigations": 7766,
      "dollars": 7767,
      "sewer": 7768,
      "kidnapp": 7769,
      "amidst": 7770,
      "deeply": 7771,
      "facilitated": 7772,
      "offered": 7773,
      "occurrence": 7774,
      "connections": 7775,
      "policies": 7776,
      "abdul": 7777,
      "ukrainian": 7778,
      "toilet": 7779,
      "changed": 7780,
      "perpetrated": 7781,
      "portion": 7782,
      "parallel": 7783,
      "disappeared": 7784,
      "dfsns": 7785,
      "ebonyi": 7786,
      "obste": 7787,
      "john": 7788,
      "executions": 7789,
      "positions": 7790,
      "unmet": 7791,
      "designed": 7792,
      "credible": 7793,
      "##ograph": 7794,
      "tube": 7795,
      "tharaka": 7796,
      "stigmat": 7797,
      "cabo": 7798,
      "neglect": 7799,
      "chlorine": 7800,
      "compensate": 7801,
      "commander": 7802,
      "peacekeeping": 7803,
      "nomadic": 7804,
      "rendering": 7805,
      "concrete": 7806,
      "occasions": 7807,
      "penins": 7808,
      "rehabilitated": 7809,
      "ceasefire": 7810,
      "reliable": 7811,
      "hotspot": 7812,
      "ancash": 7813,
      "amanat": 7814,
      "intermittent": 7815,
      "varying": 7816,
      "convention": 7817,
      "imprison": 7818,
      "deliberately": 7819,
      "downpours": 7820,
      "indirectly": 7821,
      "bngrc": 7822,
      "shirq": 7823,
      "shallow": 7824,
      "dwellings": 7825,
      "cancel": 7826,
      "equateur": 7827,
      "stealing": 7828,
      "metropolitan": 7829,
      "density": 7830,
      "neonatal": 7831,
      "supreme": 7832,
      "furniture": 7833,
      "balukhali": 7834,
      "tillabery": 7835,
      "extrajudicial": 7836,
      "proliferation": 7837,
      "dineo": 7838,
      "iohr": 7839,
      "kailo": 7840,
      "sierra": 7841,
      "inconsistent": 7842,
      "enormous": 7843,
      "headquarters": 7844,
      "slavery": 7845,
      "charcoal": 7846,
      "1st": 7847,
      "cm": 7848,
      "cis": 7849,
      "cch": 7850,
      "ccc": 7851,
      "dan": 7852,
      "dpr": 7853,
      "dod": 7854,
      "dump": 7855,
      "dyn": 7856,
      "draw": 7857,
      "fied": 7858,
      "fgd": 7859,
      "gall": 7860,
      "gwo": 7861,
      "ghan": 7862,
      "guban": 7863,
      "hdp": 7864,
      "ix": 7865,
      "jo": 7866,
      "kur": 7867,
      "kig": 7868,
      "kag": 7869,
      "las": 7870,
      "lub": 7871,
      "length": 7872,
      "lasted": 7873,
      "mg": 7874,
      "mh": 7875,
      "mv": 7876,
      "nz": 7877,
      "od": 7878,
      "pow": 7879,
      "pound": 7880,
      "ponds": 7881,
      "pools": 7882,
      "qal": 7883,
      "rail": 7884,
      "roles": 7885,
      "sara": 7886,
      "vig": 7887,
      "voc": 7888,
      "vib": 7889,
      "vision": 7890,
      "vote": 7891,
      "wp": 7892,
      "waves": 7893,
      "xi": 7894,
      "yield": 7895,
      "##ule": 7896,
      "##table": 7897,
      "##trol": 7898,
      "##bing": 7899,
      "##bia": 7900,
      "##ients": 7901,
      "##ija": 7902,
      "##ram": 7903,
      "##oty": 7904,
      "##pm": 7905,
      "##pea": 7906,
      "##nar": 7907,
      "##night": 7908,
      "##moud": 7909,
      "##cted": 7910,
      "##du": 7911,
      "##dis": 7912,
      "##fund": 7913,
      "##zed": 7914,
      "##v1": 7915,
      "##vis": 7916,
      "think": 7917,
      "##erve": 7918,
      "##inf": 7919,
      "##onut": 7920,
      "##onite": 7921,
      "##aters": 7922,
      "##atra": 7923,
      "##alid": 7924,
      "##arhar": 7925,
      "##icides": 7926,
      "##isi": 7927,
      "##roportion": 7928,
      "rech": 7929,
      "retal": 7930,
      "really": 7931,
      "##oug": 7932,
      "asim": 7933,
      "fort": 7934,
      "hailst": 7935,
      "##sein": 7936,
      "##elc": 7937,
      "sure": 7938,
      "205": 7939,
      "whz": 7940,
      "cha": 7941,
      "chip": 7942,
      "alli": 7943,
      "stagger": 7944,
      "discon": 7945,
      "##umba": 7946,
      "##ivation": 7947,
      "##aded": 7948,
      "deploy": 7949,
      "deployment": 7950,
      "deeper": 7951,
      "##chi": 7952,
      "##abet": 7953,
      "##estations": 7954,
      "##estimated": 7955,
      "heart": 7956,
      "heard": 7957,
      "anten": 7958,
      "permission": 7959,
      "permitted": 7960,
      "exact": 7961,
      "exports": 7962,
      "hasn": 7963,
      "hasakeh": 7964,
      "watering": 7965,
      "prince": 7966,
      "contag": 7967,
      "containing": 7968,
      "images": 7969,
      "webs": 7970,
      "##ibonite": 7971,
      "adult": 7972,
      "diabet": 7973,
      "##allas": 7974,
      "item": 7975,
      "##holds": 7976,
      "something": 7977,
      "poly": 7978,
      "seroty": 7979,
      "norte": 7980,
      "malian": 7981,
      "cra": 7982,
      "mafa": 7983,
      "conference": 7984,
      "remo": 7985,
      "remitt": 7986,
      "ammun": 7987,
      "supporters": 7988,
      "##prising": 7989,
      "afra": 7990,
      "pled": 7991,
      "plum": 7992,
      "emotion": 7993,
      "serving": 7994,
      "##odok": 7995,
      "spons": 7996,
      "spite": 7997,
      "##ipia": 7998,
      "composed": 7999,
      "##ansl": 8000,
      "consol": 8001,
      "evident": 8002,
      "expendit": 8003,
      "expelled": 8004,
      "##iological": 8005,
      "##angw": 8006,
      "##isha": 8007,
      "mind": 8008,
      "lie": 8009,
      "reluct": 8010,
      "153": 8011,
      "151": 8012,
      "##ahar": 8013,
      "bott": 8014,
      "pastures": 8015,
      "##undo": 8016,
      "usaid": 8017,
      "desal": 8018,
      "scope": 8019,
      "fold": 8020,
      "signatory": 8021,
      "shortly": 8022,
      "destination": 8023,
      "militiam": 8024,
      "worksh": 8025,
      "confirms": 8026,
      "##ysed": 8027,
      "##ieh": 8028,
      "163": 8029,
      "supplements": 8030,
      "139": 8031,
      "extension": 8032,
      "##ikipia": 8033,
      "225": 8034,
      "aids": 8035,
      "##ashi": 8036,
      "burn": 8037,
      "##ogue": 8038,
      "indications": 8039,
      "hospitalized": 8040,
      "blind": 8041,
      "warns": 8042,
      "246": 8043,
      "halted": 8044,
      "grade": 8045,
      "iron": 8046,
      "296": 8047,
      "equally": 8048,
      "264": 8049,
      "foundation": 8050,
      "salv": 8051,
      "salam": 8052,
      "310": 8053,
      "herding": 8054,
      "pregnancy": 8055,
      "catch": 8056,
      "liter": 8057,
      "333": 8058,
      "##ronutr": 8059,
      "cyclones": 8060,
      "eighty": 8061,
      "laikipia": 8062,
      "antig": 8063,
      "feared": 8064,
      "exceed": 8065,
      "qualitative": 8066,
      "thirty": 8067,
      "374": 8068,
      "immense": 8069,
      "influence": 8070,
      "430": 8071,
      "groundwater": 8072,
      "##uffs": 8073,
      "handed": 8074,
      "440": 8075,
      "streams": 8076,
      "stretch": 8077,
      "relocations": 8078,
      "administered": 8079,
      "inhuman": 8080,
      "highlights": 8081,
      "surrounds": 8082,
      "creation": 8083,
      "traveling": 8084,
      "ezo": 8085,
      "link": 8086,
      "unsanitary": 8087,
      "physically": 8088,
      "intensifying": 8089,
      "karen": 8090,
      "originally": 8091,
      "jointly": 8092,
      "util": 8093,
      "thresholds": 8094,
      "##iye": 8095,
      "dropping": 8096,
      "institutional": 8097,
      "vegetation": 8098,
      "kids": 8099,
      "committees": 8100,
      "sabah": 8101,
      "cameroonian": 8102,
      "560": 8103,
      "vii": 8104,
      "enterpr": 8105,
      "consultative": 8106,
      "skills": 8107,
      "affordable": 8108,
      "peaked": 8109,
      "hoima": 8110,
      "badly": 8111,
      "temperature": 8112,
      "mahwit": 8113,
      "accommodate": 8114,
      "unprot": 8115,
      "transfers": 8116,
      "deprivation": 8117,
      "minorities": 8118,
      "marginally": 8119,
      "belonging": 8120,
      "grande": 8121,
      "sweet": 8122,
      "sanaag": 8123,
      "muddy": 8124,
      "tribes": 8125,
      "begging": 8126,
      "breaking": 8127,
      "societ": 8128,
      "artibonite": 8129,
      "prioritized": 8130,
      "prioritised": 8131,
      "##iraan": 8132,
      "iboko": 8133,
      "encoun": 8134,
      "blackouts": 8135,
      "kirundo": 8136,
      "suggestions": 8137,
      "akobo": 8138,
      "lesb": 8139,
      "recommend": 8140,
      "dignified": 8141,
      "booby": 8142,
      "borehole": 8143,
      "galgad": 8144,
      "hhs": 8145,
      "punishment": 8146,
      "compounds": 8147,
      "dwind": 8148,
      "supplementation": 8149,
      "hussein": 8150,
      "unavailability": 8151,
      "custom": 8152,
      "strict": 8153,
      "situated": 8154,
      "ownership": 8155,
      "narok": 8156,
      "unmas": 8157,
      "scheme": 8158,
      "horrific": 8159,
      "tracking": 8160,
      "coconut": 8161,
      "american": 8162,
      "christian": 8163,
      "shifted": 8164,
      "compensation": 8165,
      "taizz": 8166,
      "historical": 8167,
      "dialogue": 8168,
      "occasion": 8169,
      "initiative": 8170,
      "initiatives": 8171,
      "prohibited": 8172,
      "apparently": 8173,
      "muham": 8174,
      "##atric": 8175,
      "embass": 8176,
      "obstacle": 8177,
      "joseph": 8178,
      "shipments": 8179,
      "uxos": 8180,
      "tomato": 8181,
      "princip": 8182,
      "dismantled": 8183,
      "korah": 8184,
      "nablus": 8185,
      "awaiting": 8186,
      "satisfactory": 8187,
      "rukban": 8188,
      "sevent": 8189,
      "stagnant": 8190,
      "hinders": 8191,
      "messages": 8192,
      "ransom": 8193,
      "havana": 8194,
      "undernutrition": 8195,
      "passengers": 8196,
      "thunderstorms": 8197,
      "fierce": 8198,
      "condem": 8199,
      "choose": 8200,
      "dehydration": 8201,
      "prefecture": 8202,
      "retrie": 8203,
      "antsir": 8204,
      "abyei": 8205,
      "tripled": 8206,
      "groundnuts": 8207,
      "bubonic": 8208,
      "nangarhar": 8209,
      "rvf": 8210,
      "crucial": 8211,
      "minawao": 8212,
      "obstetric": 8213,
      "shirqat": 8214,
      "cchf": 8215,
      "cccm": 8216,
      "dynam": 8217,
      "gwoza": 8218,
      "vigil": 8219,
      "vibrio": 8220,
      "asimah": 8221,
      "allied": 8222,
      "staggering": 8223,
      "antenatal": 8224,
      "ammunition": 8225,
      "afraid": 8226,
      "emotional": 8227,
      "reluctant": 8228,
      "militiamen": 8229,
      "unprotected": 8230,
      "3rd": 8231,
      "4m": 8232,
      "bau": 8233,
      "ces": 8234,
      "cess": 8235,
      "cater": 8236,
      "curr": 8237,
      "cans": 8238,
      "dav": 8239,
      "dinh": 8240,
      "diana": 8241,
      "fu": 8242,
      "fed": 8243,
      "fren": 8244,
      "fata": 8245,
      "father": 8246,
      "gol": 8247,
      "gate": 8248,
      "gains": 8249,
      "h1": 8250,
      "hod": 8251,
      "ied": 8252,
      "jur": 8253,
      "jrc": 8254,
      "kany": 8255,
      "kodok": 8256,
      "lies": 8257,
      "lai": 8258,
      "lansl": 8259,
      "mile": 8260,
      "nk": 8261,
      "nithi": 8262,
      "pit": 8263,
      "pau": 8264,
      "pakh": 8265,
      "pestic": 8266,
      "qa": 8267,
      "rand": 8268,
      "rumb": 8269,
      "rival": 8270,
      "son": 8271,
      "sul": 8272,
      "sack": 8273,
      "sli": 8274,
      "tion": 8275,
      "tart": 8276,
      "tells": 8277,
      "tented": 8278,
      "tumb": 8279,
      "ua": 8280,
      "ukh": 8281,
      "var": 8282,
      "vac": 8283,
      "welc": 8284,
      "xai": 8285,
      "yu": 8286,
      "zab": 8287,
      "##aur": 8288,
      "##auc": 8289,
      "##bc": 8290,
      "##book": 8291,
      "##red": 8292,
      "##rir": 8293,
      "##kg": 8294,
      "##shan": 8295,
      "##ply": 8296,
      "##gical": 8297,
      "##cences": 8298,
      "##din": 8299,
      "##wan": 8300,
      "##wara": 8301,
      "##hi": 8302,
      "##hem": 8303,
      "##qah": 8304,
      "##vision": 8305,
      "##erak": 8306,
      "##esby": 8307,
      "##int": 8308,
      "##inder": 8309,
      "##onal": 8310,
      "##onents": 8311,
      "##eni": 8312,
      "##enn": 8313,
      "##enza": 8314,
      "##itas": 8315,
      "##itors": 8316,
      "##alat": 8317,
      "##arb": 8318,
      "##arah": 8319,
      "##anj": 8320,
      "##anch": 8321,
      "##ioned": 8322,
      "##ros": 8323,
      "##rog": 8324,
      "##ilu": 8325,
      "##iled": 8326,
      "##ille": 8327,
      "reverse": 8328,
      "##omination": 8329,
      "##acing": 8330,
      "##accept": 8331,
      "##idden": 8332,
      "asia": 8333,
      "forward": 8334,
      "##igible": 8335,
      "##ulation": 8336,
      "##ulated": 8337,
      "##oper": 8338,
      "##opard": 8339,
      "##geyo": 8340,
      "ackn": 8341,
      "##elines": 8342,
      "cham": 8343,
      "chance": 8344,
      "alam": 8345,
      "alive": 8346,
      "sem": 8347,
      "sealed": 8348,
      "stem": 8349,
      "##ads": 8350,
      "withstand": 8351,
      "##che": 8352,
      "##child": 8353,
      "##abi": 8354,
      "##abag": 8355,
      "##essing": 8356,
      "foodst": 8357,
      "hev": 8358,
      "atroc": 8359,
      "resur": 8360,
      "resumption": 8361,
      "residual": 8362,
      "##emba": 8363,
      "perak": 8364,
      "perime": 8365,
      "##itions": 8366,
      "unaccept": 8367,
      "##bert": 8368,
      "##render": 8369,
      "##ande": 8370,
      "##andaka": 8371,
      "image": 8372,
      "imbon": 8373,
      "assad": 8374,
      "abyan": 8375,
      "abbas": 8376,
      "##iba": 8377,
      "##ongwe": 8378,
      "##ongila": 8379,
      "##apu": 8380,
      "notes": 8381,
      "notable": 8382,
      "serbia": 8383,
      "manner": 8384,
      "malemba": 8385,
      "insulin": 8386,
      "##athes": 8387,
      "crs": 8388,
      "clara": 8389,
      "infil": 8390,
      "imped": 8391,
      "impeding": 8392,
      "entr": 8393,
      "amend": 8394,
      "supports": 8395,
      "strained": 8396,
      "##weight": 8397,
      "emp": 8398,
      "##odran": 8399,
      "spar": 8400,
      "##acha": 8401,
      "alliance": 8402,
      "unders": 8403,
      "expul": 8404,
      "risking": 8405,
      "harare": 8406,
      "##angor": 8407,
      "##ishes": 8408,
      "underlying": 8409,
      "underfund": 8410,
      "##ensions": 8411,
      "##ensils": 8412,
      "upgrad": 8413,
      "surgical": 8414,
      "surrender": 8415,
      "recon": 8416,
      "##ifications": 8417,
      "elgeyo": 8418,
      "156": 8419,
      "perspect": 8420,
      "suspic": 8421,
      "lima": 8422,
      "178": 8423,
      "worked": 8424,
      "mosque": 8425,
      "##gress": 8426,
      "##grial": 8427,
      "tea": 8428,
      "text": 8429,
      "184": 8430,
      "182": 8431,
      "##crip": 8432,
      "destroy": 8433,
      "305": 8434,
      "161": 8435,
      "193": 8436,
      "147": 8437,
      "143": 8438,
      "frame": 8439,
      "periodic": 8440,
      "collectively": 8441,
      "##ikas": 8442,
      "224": 8443,
      "221": 8444,
      "brib": 8445,
      "quite": 8446,
      "helodran": 8447,
      "directed": 8448,
      "generator": 8449,
      "blocks": 8450,
      "wards": 8451,
      "235": 8452,
      "occurs": 8453,
      "##yinga": 8454,
      "assessment2": 8455,
      "morobo": 8456,
      "moresby": 8457,
      "granted": 8458,
      "begins": 8459,
      "279": 8460,
      "irin": 8461,
      "vaccin": 8462,
      "gogrial": 8463,
      "284": 8464,
      "critically": 8465,
      "facebook": 8466,
      "lift": 8467,
      "muyinga": 8468,
      "defined": 8469,
      "departure": 8470,
      "departures": 8471,
      "probability": 8472,
      "solom": 8473,
      "systematically": 8474,
      "epic": 8475,
      "##mining": 8476,
      "worldwide": 8477,
      "species": 8478,
      "explains": 8479,
      "sexually": 8480,
      "structure": 8481,
      "opportunity": 8482,
      "iligan": 8483,
      "studies": 8484,
      "erw": 8485,
      "backup": 8486,
      "background": 8487,
      "heading": 8488,
      "335": 8489,
      "321": 8490,
      "sheets": 8491,
      "##ariat": 8492,
      "lae": 8493,
      "laid": 8494,
      "clusters": 8495,
      "khor": 8496,
      "khal": 8497,
      "khirb": 8498,
      "simply": 8499,
      "roadside": 8500,
      "340": 8501,
      "contributes": 8502,
      "anton": 8503,
      "antongila": 8504,
      "fearing": 8505,
      "exceeding": 8506,
      "aburoc": 8507,
      "his3": 8508,
      "payam": 8509,
      "learnt": 8510,
      "barley": 8511,
      "barbud": 8512,
      "clinically": 8513,
      "denomination": 8514,
      "values": 8515,
      "raqqah": 8516,
      "demanded": 8517,
      "persisting": 8518,
      "persistence": 8519,
      "exacerbates": 8520,
      "privately": 8521,
      "garin": 8522,
      "didn": 8523,
      "applic": 8524,
      "explosives": 8525,
      "meaning": 8526,
      "depleting": 8527,
      "disproportion": 8528,
      "##forcing": 8529,
      "promote": 8530,
      "karan": 8531,
      "utensils": 8532,
      "swathes": 8533,
      "622": 8534,
      "logone": 8535,
      "graves": 8536,
      "selangor": 8537,
      "dangers": 8538,
      "eggs": 8539,
      "sky": 8540,
      "nyar": 8541,
      "ethnicity": 8542,
      "mahmoud": 8543,
      "mahallas": 8544,
      "enroll": 8545,
      "##tegration": 8546,
      "ceased": 8547,
      "rubber": 8548,
      "devastation": 8549,
      "##khwa": 8550,
      "contrary": 8551,
      "dozen": 8552,
      "freely": 8553,
      "climatic": 8554,
      "anticipation": 8555,
      "jeopard": 8556,
      "expression": 8557,
      "780": 8558,
      "profile": 8559,
      "secretariat": 8560,
      "tortured": 8561,
      "dominica": 8562,
      "jordanian": 8563,
      "coup": 8564,
      "undertakes": 8565,
      "epidemiology": 8566,
      "spraying": 8567,
      "ranges": 8568,
      "mode": 8569,
      "abandon": 8570,
      "adolescences": 8571,
      "religion": 8572,
      "mobilizing": 8573,
      "nurse": 8574,
      "discussed": 8575,
      "substantially": 8576,
      "connecting": 8577,
      "routinely": 8578,
      "daesh": 8579,
      "encirc": 8580,
      "terrorist": 8581,
      "meri": 8582,
      "1951": 8583,
      "joined": 8584,
      "uncontrol": 8585,
      "amounting": 8586,
      "bandits": 8587,
      "steps": 8588,
      "stepped": 8589,
      "resolved": 8590,
      "appealing": 8591,
      "prevailed": 8592,
      "franc": 8593,
      "heaters": 8594,
      "marrying": 8595,
      "paralysis": 8596,
      "finalized": 8597,
      "cooperative": 8598,
      "categories": 8599,
      "solidar": 8600,
      "sensit": 8601,
      "sensitive": 8602,
      "mohammed": 8603,
      "mohammad": 8604,
      "customs": 8605,
      "custody": 8606,
      "reopen": 8607,
      "stabilized": 8608,
      "diagnosed": 8609,
      "companions": 8610,
      "typhoon": 8611,
      "insurgency": 8612,
      "underground": 8613,
      "gradual": 8614,
      "mbandaka": 8615,
      "pngd": 8616,
      "aimed": 8617,
      "jailed": 8618,
      "traumatic": 8619,
      "installed": 8620,
      "kwilu": 8621,
      "tahrir": 8622,
      "vessel": 8623,
      "surgery": 8624,
      "faecal": 8625,
      "correspond": 8626,
      "deportation": 8627,
      "resistance": 8628,
      "oblig": 8629,
      "dialysis": 8630,
      "eroded": 8631,
      "ctcs": 8632,
      "habit": 8633,
      "obstacles": 8634,
      "lanka": 8635,
      "escaped": 8636,
      "escaping": 8637,
      "professionals": 8638,
      "durable": 8639,
      "navy": 8640,
      "russian": 8641,
      "widows": 8642,
      "suburbs": 8643,
      "reprisal": 8644,
      "daughters": 8645,
      "##tunkhwa": 8646,
      "pollution": 8647,
      "husbands": 8648,
      "traumatised": 8649,
      "cowpea": 8650,
      "micronutr": 8651,
      "diyala": 8652,
      "involvement": 8653,
      "certificates": 8654,
      "telecommunication": 8655,
      "jabal": 8656,
      "bokolmayo": 8657,
      "vouchers": 8658,
      "fgds": 8659,
      "tabqa": 8660,
      "beatings": 8661,
      "pharmacies": 8662,
      "negotiations": 8663,
      "australian": 8664,
      "zahab": 8665,
      "discharged": 8666,
      "nursing": 8667,
      "pesos": 8668,
      "##births": 8669,
      "malawians": 8670,
      "announcement": 8671,
      "logistical": 8672,
      "sewerage": 8673,
      "kidnappings": 8674,
      "wpv1": 8675,
      "##distric": 8676,
      "diabetes": 8677,
      "desalination": 8678,
      "blindness": 8679,
      "dynamics": 8680,
      "cessation": 8681,
      "french": 8682,
      "pakhtunkhwa": 8683,
      "pesticides": 8684,
      "##erakure": 8685,
      "acknow": 8686,
      "##children": 8687,
      "atrocities": 8688,
      "imbonerakure": 8689,
      "perspectives": 8690,
      "helodrano": 8691,
      "khirbet": 8692,
      "barbuda": 8693,
      "pngdf": 8694,
      "1m": 8695,
      "5m": 8696,
      "ail": 8697,
      "ath": 8698,
      "bun": 8699,
      "brow": 8700,
      "bama": 8701,
      "cuc": 8702,
      "cie": 8703,
      "cite": 8704,
      "cdr": 8705,
      "caves": 8706,
      "dug": 8707,
      "ease": 8708,
      "easing": 8709,
      "gust": 8710,
      "gives": 8711,
      "gmt": 8712,
      "hort": 8713,
      "iy": 8714,
      "ict": 8715,
      "iii": 8716,
      "jemeza": 8717,
      "kol": 8718,
      "kog": 8719,
      "kamp": 8720,
      "kats": 8721,
      "lun": 8722,
      "ming": 8723,
      "ment": 8724,
      "mild": 8725,
      "naj": 8726,
      "nnm": 8727,
      "pensions": 8728,
      "qub": 8729,
      "rr": 8730,
      "rut": 8731,
      "rall": 8732,
      "raz": 8733,
      "rash": 8734,
      "rio": 8735,
      "rush": 8736,
      "rudi": 8737,
      "rumon": 8738,
      "sow": 8739,
      "tch": 8740,
      "tag": 8741,
      "u5": 8742,
      "vat": 8743,
      "voda": 8744,
      "ya": 8745,
      "yida": 8746,
      "zu": 8747,
      "ze": 8748,
      "##uer": 8749,
      "##uable": 8750,
      "##uador": 8751,
      "##tar": 8752,
      "##bor": 8753,
      "##bass": 8754,
      "##bled": 8755,
      "##bbi": 8756,
      "##iations": 8757,
      "##kt": 8758,
      "##kaman": 8759,
      "##yu": 8760,
      "##path": 8761,
      "##popo": 8762,
      "##log": 8763,
      "##lings": 8764,
      "##norm": 8765,
      "##govern": 8766,
      "##gests": 8767,
      "##gender": 8768,
      "##mu": 8769,
      "##mon": 8770,
      "##mud": 8771,
      "##cra": 8772,
      "##cane": 8773,
      "##wah": 8774,
      "##fl": 8775,
      "##fara": 8776,
      "##zen": 8777,
      "##zam": 8778,
      "##12": 8779,
      "##ject": 8780,
      "##inished": 8781,
      "##onments": 8782,
      "inau": 8783,
      "##atong": 8784,
      "##orb": 8785,
      "##itations": 8786,
      "##aro": 8787,
      "##arted": 8788,
      "##arian": 8789,
      "##armed": 8790,
      "##anting": 8791,
      "##ingi": 8792,
      "tobr": 8793,
      "##icians": 8794,
      "##isers": 8795,
      "##iles": 8796,
      "reaction": 8797,
      "##econom": 8798,
      "##thle": 8799,
      "##actions": 8800,
      "##acao": 8801,
      "##ooth": 8802,
      "##ooping": 8803,
      "belief": 8804,
      "belet": 8805,
      "bethle": 8806,
      "##ames": 8807,
      "##aming": 8808,
      "##amental": 8809,
      "##amganj": 8810,
      "##versible": 8811,
      "##ids": 8812,
      "##idis": 8813,
      "conj": 8814,
      "congested": 8815,
      "ask": 8816,
      "hait": 8817,
      "##ulted": 8818,
      "##oph": 8819,
      "acre": 8820,
      "##mentary": 8821,
      "##mentioned": 8822,
      "204": 8823,
      "chari": 8824,
      "alban": 8825,
      "stool": 8826,
      "discl": 8827,
      "disreg": 8828,
      "##ums": 8829,
      "##umn": 8830,
      "deplo": 8831,
      "##abr": 8832,
      "incurs": 8833,
      "peter": 8834,
      "hem": 8835,
      "atbara": 8836,
      "##ively": 8837,
      "ans": 8838,
      "anxi": 8839,
      "##akin": 8840,
      "##akia": 8841,
      "shields": 8842,
      "exists": 8843,
      "leone": 8844,
      "hash": 8845,
      "nov": 8846,
      "unspec": 8847,
      "##agency": 8848,
      "orch": 8849,
      "wasted": 8850,
      "##ifa": 8851,
      "imatong": 8852,
      "counted": 8853,
      "assign": 8854,
      "abou": 8855,
      "abnorm": 8856,
      "ari": 8857,
      "adap": 8858,
      "##quir": 8859,
      "refr": 8860,
      "agent": 8861,
      "##encing": 8862,
      "##antage": 8863,
      "##iza": 8864,
      "##icho": 8865,
      "monitors": 8866,
      "maz": 8867,
      "preced": 8868,
      "preca": 8869,
      "confl": 8870,
      "thereby": 8871,
      "infestations": 8872,
      "impedi": 8873,
      "enters": 8874,
      "ampl": 8875,
      "embar": 8876,
      "willing": 8877,
      "span": 8878,
      "cropl": 8879,
      "phil": 8880,
      "phones": 8881,
      "##ipur": 8882,
      "##ipers": 8883,
      "compare": 8884,
      "##avy": 8885,
      "##enda": 8886,
      "lacked": 8887,
      "indec": 8888,
      "underre": 8889,
      "understand": 8890,
      "underweight": 8891,
      "undermining": 8892,
      "##orship": 8893,
      "##ensed": 8894,
      "upward": 8895,
      "cholerae": 8896,
      "violation": 8897,
      "farah": 8898,
      "103": 8899,
      "oct": 8900,
      "158": 8901,
      "avert": 8902,
      "apply": 8903,
      "##ivers": 8904,
      "##yaat": 8905,
      "depends": 8906,
      "avila": 8907,
      "limpopo": 8908,
      "colon": 8909,
      "signifi": 8910,
      "interrog": 8911,
      "111": 8912,
      "172": 8913,
      "transgender": 8914,
      "politic": 8915,
      "door": 8916,
      "##owners": 8917,
      "197": 8918,
      "buj": 8919,
      "supposed": 8920,
      "awerial": 8921,
      "254": 8922,
      "256": 8923,
      "258": 8924,
      "endabag": 8925,
      "delgad": 8926,
      "136": 8927,
      "veried": 8928,
      "landowners": 8929,
      "frus": 8930,
      "bria": 8931,
      "branch": 8932,
      "raja": 8933,
      "burtin": 8934,
      "helmand": 8935,
      "indicator": 8936,
      "banana": 8937,
      "safegu": 8938,
      "distribute": 8939,
      "expert": 8940,
      "identifying": 8941,
      "morr": 8942,
      "unhe": 8943,
      "grip": 8944,
      "##iciencies": 8945,
      "guit": 8946,
      "##ambu": 8947,
      "276": 8948,
      "goz": 8949,
      "283": 8950,
      "215": 8951,
      "deficiencies": 8952,
      "291": 8953,
      "probably": 8954,
      "earn": 8955,
      "halfa": 8956,
      "instit": 8957,
      "clearing": 8958,
      "fundamental": 8959,
      "315": 8960,
      "fulf": 8961,
      "336": 8962,
      "326": 8963,
      "329": 8964,
      "banki": 8965,
      "361": 8966,
      "##akhshan": 8967,
      "347": 8968,
      "antibi": 8969,
      "dependence": 8970,
      "deadlies": 8971,
      "represented": 8972,
      "551": 8973,
      "382": 8974,
      "388": 8975,
      "##afi": 8976,
      "detentions": 8977,
      "radical": 8978,
      "provisions": 8979,
      "460": 8980,
      "462": 8981,
      "donation": 8982,
      "advantage": 8983,
      "fisheries": 8984,
      "470": 8985,
      "415": 8986,
      "443": 8987,
      "shabab": 8988,
      "environments": 8989,
      "suggests": 8990,
      "originated": 8991,
      "travelled": 8992,
      "brown": 8993,
      "prompted": 8994,
      "recruiting": 8995,
      "639": 8996,
      "trafficked": 8997,
      "karachi": 8998,
      "speech": 8999,
      "kismayo": 9000,
      "swift": 9001,
      "drops": 9002,
      "drown": 9003,
      "ahmar": 9004,
      "searching": 9005,
      "bird": 9006,
      "resuming": 9007,
      "716": 9008,
      "selection": 9009,
      "##itovin": 9010,
      "breach": 9011,
      "775": 9012,
      "770": 9013,
      "pipe": 9014,
      "heighten": 9015,
      "736": 9016,
      "substitution": 9017,
      "740": 9018,
      "badakhshan": 9019,
      "wait": 9020,
      "##itry": 9021,
      "ordin": 9022,
      "coordinate": 9023,
      "frontline": 9024,
      "smuggled": 9025,
      "rubkona": 9026,
      "ranks": 9027,
      "contrast": 9028,
      "belo": 9029,
      "mosquitoes": 9030,
      "depressed": 9031,
      "launches": 9032,
      "##umbura": 9033,
      "investigating": 9034,
      "profess": 9035,
      "unfinished": 9036,
      "##ovavy": 9037,
      "updates": 9038,
      "youths": 9039,
      "liberated": 9040,
      "alarmingly": 9041,
      "sdg": 9042,
      "sennar": 9043,
      "advocate": 9044,
      "administrator": 9045,
      "nduta": 9046,
      "rwandan": 9047,
      "discrimin": 9048,
      "reinforced": 9049,
      "reinforcing": 9050,
      "repaired": 9051,
      "marginalized": 9052,
      "federation": 9053,
      "prioritize": 9054,
      "preference": 9055,
      "sunamganj": 9056,
      "abdel": 9057,
      "abdullah": 9058,
      "voluntarily": 9059,
      "changing": 9060,
      "gambella": 9061,
      "banditry": 9062,
      "dinar": 9063,
      "squalid": 9064,
      "filling": 9065,
      "portions": 9066,
      "paralysed": 9067,
      "exceptionally": 9068,
      "martial": 9069,
      "sirt": 9070,
      "comparable": 9071,
      "footage": 9072,
      "geograph": 9073,
      "rdt": 9074,
      "hazardous": 9075,
      "diminishing": 9076,
      "ecuador": 9077,
      "tubers": 9078,
      "dismiss": 9079,
      "hardships": 9080,
      "cocoa": 9081,
      "tharpar": 9082,
      "installations": 9083,
      "registering": 9084,
      "fetching": 9085,
      "analyzed": 9086,
      "bureauc": 9087,
      "autumn": 9088,
      "resistant": 9089,
      "oblast": 9090,
      "peacekeepers": 9091,
      "rendered": 9092,
      "replenish": 9093,
      "replenishment": 9094,
      "overwhelming": 9095,
      "jarar": 9096,
      "expectations": 9097,
      "apparent": 9098,
      "judicial": 9099,
      "tightening": 9100,
      "solely": 9101,
      "boliv": 9102,
      "digging": 9103,
      "frozen": 9104,
      "ubari": 9105,
      "chairman": 9106,
      "proceed": 9107,
      "reprisals": 9108,
      "daughter": 9109,
      "dirty": 9110,
      "gulf": 9111,
[...]
